/**
  ******************************************************************************
  * @file    network_data_params.c
  * @author  AST Embedded Analytics Research Platform
  * @date    Sun Aug  3 16:21:49 2025
  * @brief   AI Tool Automatic Code Generator for Embedded NN computing
  ******************************************************************************
  * Copyright (c) 2025 STMicroelectronics.
  * All rights reserved.
  *
  * This software is licensed under terms that can be found in the LICENSE file
  * in the root directory of this software component.
  * If no LICENSE file comes with this software, it is provided AS-IS.
  ******************************************************************************
  */

#include "network_data_params.h"


/**  Activations Section  ****************************************************/
ai_handle g_network_activations_table[1 + 2] = {
  AI_HANDLE_PTR(AI_MAGIC_MARKER),
  AI_HANDLE_PTR(NULL),
  AI_HANDLE_PTR(AI_MAGIC_MARKER),
};




/**  Weights Section  ********************************************************/
AI_ALIGNED(32)
const ai_u64 s_network_weights_array_u64[1532] = {
  0xbf0a0cc4bf5ef35dU, 0x3eb23898bcb6eee9U, 0xbded1703bdd7b26cU, 0x3dab1c81bd5d823aU,
  0xbe0dcf41be06526eU, 0xbc304b5c3e025b13U, 0x3cc2e02ebe34b645U, 0x3f7e71dc3e91efd0U,
  0x3eca41c03f8851ddU, 0xbf5c2df7bedfd78bU, 0xbd816c9abf46d6cfU, 0x3f1b69bb3f272b14U,
  0xbec7939e3e17216cU, 0x3e551767bec92e17U, 0x3c72d3a93e1f7e3fU, 0xbe3e1bbdbd6535b4U,
  0xbf05d7c7bf621cf2U, 0x3f51da0bbc96ab72U, 0x3e963c6a3f3e2919U, 0xbea3f42fbf15e346U,
  0x3e4e8ed23e8d386cU, 0xbe9b7856bf88fb18U, 0xbf0731333e85d5a4U, 0x3fb3261b3db75d2bU,
  0x3e1e4585bfa55dfaU, 0xbea4da53bbc7dea1U, 0xbebef000be5726ccU, 0x3e9c9bfc3f705f9fU,
  0x3e6f87093e3354ffU, 0x3d23e445bdee9321U, 0xbecf0ae8bcb3b5dbU, 0xbf8433dabf2c2313U,
  0xbfd453693e970b78U, 0xbf4db1923feac213U, 0xbdb8f1ae3d89deb2U, 0xbdc3bc55bf6bf88bU,
  0xbed8f7ed3e2a7127U, 0xbe4ae0833db7d63fU, 0xbe76041c3e308241U, 0x3e9ef64e3d0657c8U,
  0x3ed3596c3fa84fb0U, 0xbeb91afabe8f5b02U, 0x3f868b6e3f745fb1U, 0xbf8966cabf67a1e4U,
  0x3ebd759dbd300612U, 0xbf6cdcb4bd8be346U, 0x3ebd2bbebe288053U, 0xbfc253213effa712U,
  0xbe4be7fabe23261dU, 0x3d878463be2b60e9U, 0x3df9937abe6fc5feU, 0xbbc8819ebd3c3fc8U,
  0x3dbc3c79be1423aeU, 0x3dcfa84a3dfcfa03U, 0x3e07537d3e02b70eU, 0xbd921c193e02cf1bU,
  0x3e6d3da53e3bb900U, 0xbd72c3f5be796014U, 0x3e6416bdbe226b53U, 0x3effc7ae3ed3e844U,
  0xbdb24042be114248U, 0x3da0804fbdb37f64U, 0x3e861b223e33a2a1U, 0x3e21e6dc3e41702cU,
  0xbd03dbe03ed0ea19U, 0xbf09fea9bedf6c24U, 0xbe8edefebefb8228U, 0xbe316e96bd17f050U,
  0xbdc80ebdbe4a5599U, 0xbea5f4ffbecd0c80U, 0x3e6a5b17be1473ffU, 0xbf1b3cee3d9f99acU,
  0x3e059937bc8d16d3U, 0x3f0092af3e6c395eU, 0x3ef5c0593f4a95a9U, 0xbeb54feb3d0e7e2eU,
  0xbf06b424becdc5c9U, 0xbf27732abf08e87fU, 0xbe1c8e73bee3c5e9U, 0x3e5f13743df4e3d5U,
  0x3c59308bbe5a2400U, 0xbc65737ebda41104U, 0x3ebb77b63e7b6a08U, 0x3e4c81bb3e8eb924U,
  0x3eefd0cfbb00ef44U, 0x3f27a1ef3f52b6f1U, 0xbda1d7323ec03d18U, 0xbfa4ac86bed05afbU,
  0x3d33924fbc774aa5U, 0xbcd29dafbc0aafebU, 0xbc6e50d43cb8839dU, 0x3cc106edbcaecfdaU,
  0xbc821a8dbc2a84e8U, 0x3cd928343ceb9d38U, 0xbc8b664e3c8ab03eU, 0x3c9ac2b0bc551234U,
  0x3db6cc84be0a9b5eU, 0xbdb87bbabdb5d380U, 0x3dfc8440bcd05d5eU, 0xbc9d480e3e0f5372U,
  0x3edd4e56be8dc6bdU, 0x3dcd392dbe4b754dU, 0xbcd5cc713decfbcdU, 0xbc3b6f9abe10794eU,
  0xbed0cccfbf52989aU, 0x3f07f1ff3e30fcbeU, 0xbf50f7afbf59ff3dU, 0xbdcc039f3facf70aU,
  0xbee13306bfb80e20U, 0x3f65410d3f748eb0U, 0xbe5744d33e5a5c12U, 0x3f826b663f3250b2U,
  0x3e153951be7ebd26U, 0x3e05a9ffbcf957bfU, 0xbe6a881bbde1ce33U, 0xbc5c80e13e700154U,
  0xbe4b5f8b3dcda521U, 0x3e39252ebdde28cfU, 0x3e168136be0d7b0aU, 0xbea068203d919364U,
  0x3df0fcbbbe748e55U, 0xbf8c6baa3dd8b2baU, 0x3ec827ca3f12a0eaU, 0xbce2f6b6bd56ff25U,
  0xbd9cb068bdd4bbedU, 0xbe457fdfbd158c2cU, 0x3e18fe32be021b6dU, 0xbe81f5fe3efb1d8fU,
  0xbe2012a33f8e0946U, 0x3f676b593f0e2f4dU, 0xbf08d184bf54a3c1U, 0x3ddfc5243ee51d6dU,
  0xbeed325ebeb4a5f6U, 0x3ea6738a3e5c44edU, 0x3cc702923d8a5881U, 0xbf752786be8c5d41U,
  0xbd5109313deefc63U, 0xbe60ac973defee92U, 0x3dd78e403cd3645aU, 0x3e07e5213d0a51d6U,
  0xbd7ae0f4bd9bae3fU, 0x3e120577bdab8801U, 0x3e0c2dcdbd93c499U, 0x3d0228adbdbf1b5fU,
  0xbe84a791be690140U, 0x3e5af76cbe62075dU, 0x3e8d1ac83f0fb8c2U, 0xbf00b9dfbbd4b697U,
  0xbf4fd9d0bf8f8640U, 0x3fb8101d3f60ac4bU, 0x3e3f084e3f732f6cU, 0xbf874b09bf1dae69U,
  0x3f7057003fd88f52U, 0x3daca719be09f866U, 0xbe2701edbd4596b4U, 0xbd52d817bef293fdU,
  0x3f018f8c3e14995bU, 0x3c9a0dcfbdb9362eU, 0x3eac6f093db3cd50U, 0xbe38801cbd8c8701U,
  0x3cd7438f3f520ab3U, 0x3eb73a61be502b4dU, 0x3da8877b3d66516dU, 0x3e37f438bd3e3f96U,
  0x3cc011a9bdec52cbU, 0x3e8bb5d93e820cc4U, 0xbe74b7b63eca92deU, 0xbf79cd113e3e2c75U,
  0xbf6e11ffbeae793dU, 0x3f0537ca3f05fbdfU, 0x3e06b72f3e664b3aU, 0xbe102b493c282d4bU,
  0x3e05ae643e0859ddU, 0x3e3f11ebbef999f2U, 0xbea89f9d3f11b3f1U, 0x3f5fbfea3df04047U,
  0x3edbf874bfcebcc7U, 0x3d81fde23e4fc6b6U, 0xbe632fa7bf92cd68U, 0x3e9bc3233f0d23a2U,
  0x3e51409fbee0a364U, 0x3db4d5b73f67970aU, 0xbf99b5b7bf847dddU, 0x3ffceebe3eddef23U,
  0xbc077fb53e87b60cU, 0xbf0826793dc2044fU, 0x3e6f08cbbe2a7401U, 0x3fc3993f3fa46d96U,
  0xbf4a1b57bf0db4aaU, 0x3e4facfc3eb422e5U, 0xbe891fe1bed0c50eU, 0xbfa066303d8c2fc7U,
  0xbda1ff7abd4cfe5eU, 0xc0a15cf9c14ed894U, 0xc05f55cfc1391c08U, 0xc112796fc0ed3ae6U,
  0xba79bc82c1483dabU, 0xbfde5da5c1620ef8U, 0xc0a584cec119713eU, 0xc1386d42c10a09feU,
  0xc0df123cc16df9f8U, 0xc0d89625be85bf67U, 0xc14c2d22be5c8766U, 0xc0d31de6c1458485U,
  0x3ebb62103dbde8c9U, 0xbec69c1dbfacd04cU, 0x3f0dafe3bf0622ebU, 0x3f4cb417be839acaU,
  0xbe657f833f2fd37aU, 0xbe50735d3fe7192dU, 0xbf0fc3833f96310bU, 0xbebf0207bcda70a4U,
  0xbf8b7b4b3dd5afb7U, 0x3ed9d4683e7ce4d4U, 0xbcb29f503e14d911U, 0x3f17bfd1bf38054fU,
  0xbeea3d70be15a346U, 0xbeafdf343f5b5cc4U, 0x3e9d4677be16f2ddU, 0xbe17beb53faf64e1U,
  0x3da0dd553f07a77eU, 0xbe0f8e423dc66d37U, 0xbf36a2eb3f181247U, 0xbe3542b63ea5c318U,
  0x3eadb6ddbf1aa8c2U, 0xbda6f0edbd11ba46U, 0x3fa42374be9e6581U, 0xbf3b66c13f50043dU,
  0x3e96785e3e7a9d7cU, 0x3e1cea703e6be9d6U, 0x3e00a6a5bdc8cb87U, 0x3f9397e7be320733U,
  0x3ebdb721bd3197b0U, 0x3d8a08703e0b4b85U, 0xbe5cefbcbf40a2b2U, 0xbeb0cfe7bef54812U,
  0x3defaea1bf87e9afU, 0x3d3509e43eb74f28U, 0xbeecd99c3e3c0299U, 0x3ed8c644bda8014eU,
  0xbf295fcc3e0520b0U, 0xbe2317f1bf96a924U, 0x3ee2878fbf50fe72U, 0xbf35d026beed6b54U,
  0xbd1ee9cc3f1a365fU, 0xbd380cab3fbe9a84U, 0x39c29c813db30e3aU, 0x3f90562bbee41ca9U,
  0xbfb02a9e3eb77506U, 0x3e1d179ebe35d63cU, 0xbee693e9bea83533U, 0xbd8e9b4d3edfc94dU,
  0x3e01978b3e0613c5U, 0x3ca87334bead3f13U, 0xbe2552433e58afd9U, 0xbdd8373c3f701c2cU,
  0x3d96edfd3df0eb3aU, 0x3dfe42e6bef91a1aU, 0x3f41c4f13f250d1cU, 0x3e8bfe903f041f53U,
  0x3e5d13fcbf0589c9U, 0x3d8932523e7c391cU, 0xbf37bd8b3d1e68b7U, 0x3e766dc23dc6e119U,
  0xbc8a4ae1bdcd8a83U, 0xbe85b2b4bead5baaU, 0xbeed7d6abe253b91U, 0x3d190e443e277315U,
  0xbda58d2abc92a92aU, 0x3e889a8abd53ff61U, 0xbe812bc2bedcb1e7U, 0x3f2bd1473e478535U,
  0xbe8772013edda594U, 0x3e55b6223f04ed22U, 0x3e7f90cebe8cdd16U, 0x3e9034fe3d3da6ecU,
  0xbebcad3e3d7847d7U, 0xbf08e30bbe09d3f1U, 0x3ee8d74f3f92a84fU, 0xbf233308bcc363cfU,
  0xbe9384153e5ece93U, 0x3dcac6fc3ec39480U, 0x3d9840e33f7bd336U, 0x3ec140f6be873f72U,
  0xbf93b99e3fa1a5f8U, 0x3e6fe16cbec574a1U, 0x3eb1e432be0e8ce2U, 0x3f45e907bf9079f0U,
  0xbf0928683d92aedaU, 0xbdc25e25be45e78aU, 0x3f0177b33f357d5aU, 0x3f10ca433f4e5db1U,
  0x3d0d0e2f3d60f800U, 0x3c2cd58b3f1f095dU, 0xbf5f43173eb89b57U, 0xbe849d483e8f5791U,
  0x3e9361e7bfc4ba05U, 0x3e9b878c3dd64fceU, 0xbe3cb269be1dc53eU, 0x3e2d97c6bfd58d92U,
  0xbdab3f1e3e236d73U, 0xbe8b8a65bc67b76eU, 0xbd5657d1be689fa2U, 0xbf4984a4be1518f8U,
  0x3e0bd3ecbe0efe41U, 0x3ea03f86bef0c9a6U, 0xbe02c31a3f25b8e6U, 0xbea59a06bf8cb1f8U,
  0xbf8a8cdd3c9191c2U, 0x3e9406a1bbc1f9b9U, 0x3f6ce4c13e7d6a0fU, 0x3d820148be8e4f45U,
  0x3df7ff1abe9f62a7U, 0x3e269b103f7440e1U, 0x3efdbac53f287d0aU, 0x3d9fcc26bdc91856U,
  0xbe113d8a3d58205eU, 0x3eb99fb3bfcfb4f0U, 0x3fee989ebfabd145U, 0x3f24d6973f2510caU,
  0x3ea9dd19402d3a67U, 0x3eb35be83daf06e8U, 0x3d2493aabf16a01dU, 0xbf76ed7e3faf711aU,
  0x3ecbdcb4beacfa2eU, 0x3f0d0bcfbe84a920U, 0xbdf563d2bf8918b7U, 0xbeaee460bef5dfd6U,
  0xbe56832cbe175a15U, 0xbbacceca3fa3aaa4U, 0x3f166cdd3ecc0f01U, 0xbfa730cd3ed982c4U,
  0x3ebbaec8bf154b08U, 0xbe7c5eb63d8168c7U, 0xbf5937d63f6e17caU, 0xbed1960e3ff20e58U,
  0xbfa61bf6bf5c9ee1U, 0xbe297e793f33d560U, 0x3eccf182be380b55U, 0x3e552936bf225e87U,
  0xbf2011ff401cac92U, 0xbd84fe073f8eef55U, 0x3e95a4adbe972e1fU, 0x3f749ba73ea1e867U,
  0x3f23ddeb3fe49f3dU, 0xbe3a9d00be841d54U, 0x3f36299abeac8422U, 0xbf2a658d3fd5e6f4U,
  0x3d3f7e8c3ded393fU, 0x3e1dae8c3fd6b5f6U, 0x3ebb8b103fd4b441U, 0x3c3cef1d3e0c9c37U,
  0x3d0a66c03f8e602cU, 0x3e95ba66bdd3e985U, 0xbcc405a33f351e25U, 0x3f4adbea3b863802U,
  0x3eb63cc43f565f9cU, 0xbd6665eb3e2fdac3U, 0x3e9a3e363ebb309cU, 0x3f313cbe401ec2eaU,
  0x3dc8b768beb38f54U, 0x3de41d283eac7ce8U, 0xbd1c55103f64be97U, 0xbf33bb65bcb3c3b8U,
  0x3cc32fedbdacfa60U, 0x3d7587cc3f82a60dU, 0x3ed5ff99be497a3cU, 0x3eab5b7f3e351ebbU,
  0x3cb023d2bd52573fU, 0x3dcdd154bdae309aU, 0x3f61d4e53e1d6cb4U, 0x3de397ee3f20818aU,
  0xbe3c3ecb3dfef9edU, 0xbeaefe8d3e10df8aU, 0x3f0a7b783f0b423aU, 0x3e7bf0fd3eba00ecU,
  0x3e04a2ea3e9c0ebcU, 0x3d66e517bd9d635dU, 0xbe090cdbbefd5bf9U, 0x3f094ec0bee3503eU,
  0xbe1cab863edbe693U, 0xbee38a86beb6f2a6U, 0x3f51a523be0e55d6U, 0x3d9ed1e13e415ab5U,
  0x3f56be93beb0b75aU, 0xbd8ff4ee3fa5b6f6U, 0x3f689483bf939d3dU, 0xbe30a21fbf11bb49U,
  0xbe90b488bf267139U, 0x3e83a082bd2cfc32U, 0x3eeffd073f0ca3ceU, 0x3d2b17f23f8e60e5U,
  0xbe155c6ebf0cd586U, 0x3ec319b93e32661eU, 0xbf25f0c2beec918fU, 0x3ecdbf6c3fac353fU,
  0x3efec4a13c9ae65cU, 0x3e3e25333f9633f2U, 0x3e2c33083f048ff0U, 0xbeca38f83e538cfaU,
  0xbee9fa5fbe67b72bU, 0x3e619d653f02f3acU, 0x3f55b1273d969091U, 0x3dc782883ee33730U,
  0xbc28b5a03f892af4U, 0xbcd956623e9121f5U, 0x3f697d84bf07916aU, 0xbf8cc7d43ffeb62cU,
  0xbf21053ebf7b06ecU, 0xbdc47cb83fb6ed45U, 0x3d863e7cbf4c5f59U, 0x3f8de2df3f214643U,
  0xbf4439823f8471a4U, 0xbd9a5e693fdd4828U, 0x3eb9e32d3e0e4749U, 0x3f62a08abeecc5c7U,
  0x3f44c0b83f7e26deU, 0x3fa7e9babee23515U, 0x3e6d0f35bf9cfc12U, 0x3ec2a3853f4301aaU,
  0x3ea38084bef6e164U, 0xbdd34a953fcec2b2U, 0xbf255e1f3ea00a94U, 0x3dacfd79bfeb6890U,
  0xbba08f71bf9f37f0U, 0x3de438e4be19bda3U, 0x3f8c0e21bf9e4bf6U, 0x3ed1092d3e84fe2bU,
  0x3ddb89ab401a749eU, 0x3fe04e69bf040835U, 0xbf737537bf3fbb3dU, 0xbdead3ca3e29f5e0U,
  0x3f314875bbbd6985U, 0x3f4960a93e305dc7U, 0xbfe91c21c026ec6dU, 0x3ea231673d210139U,
  0x3f69ef45bf6f1747U, 0xbd32fc7b40113314U, 0x3fe72c02be71c732U, 0xc027207e3d45a5a0U,
  0xbe515ca6bfe89d00U, 0x3f9beadc3e937f36U, 0xc03880023f2d2a0bU, 0xbfa72cc83fa70d90U,
  0x3dceb4843d6cde03U, 0xbfe1b12e3feaded9U, 0xbe296b2ebe55156bU, 0x3ed39b34be778711U,
  0xbe5642533f968f09U, 0x3e8687283fb5d12dU, 0xbedcc2913f4a400cU, 0x3e7290fb3f063778U,
  0xbeb748d63fd0d3a4U, 0xbf6ef8fd3f391676U, 0x3f92eba7bf058e16U, 0x3f331ae73ff6784dU,
  0xbe82a760bd968680U, 0x3f1862c83ff0c9bdU, 0xbdcc6c663ebd09efU, 0x3edb0386bf830667U,
  0xbe8349debf89cc3fU, 0x3cb8a72a3eff65c3U, 0xbf4b04503f195e47U, 0xbf19c4723e5add00U,
  0x3e74b61cbf37f921U, 0xbf58d53e3d142cdbU, 0x3d6e708cbdf1bdccU, 0x3f4990f7403bc201U,
  0x3e97cf05be0fbeebU, 0xbf1ca76cbdb27ff4U, 0xbf885ba23f15adffU, 0xbd86ceeabd058b82U,
  0x3f022b8dbeb042e4U, 0xbe4a6a493f942993U, 0xbd7c8832bf951981U, 0x3d707a503d06ecc9U,
  0x3b5b84bcbef28975U, 0x3eca67eb3db8c9ebU, 0xbe1a0b3abdf9576fU, 0xbf2554e53f4ac628U,
  0x3f14e63bbe4c3480U, 0xbe9af2383f500c3eU, 0xbe86ee0d3f07e57eU, 0x3f0df2e23e471137U,
  0x3effcfdc3f8c5696U, 0x3e33c5223f638eaaU, 0xbe6051113e196133U, 0x3f55a537be3585f3U,
  0xbeb6b8b3bd2e5f85U, 0xbc85d1c23ec85d3dU, 0x3fe1ea63bdf2654fU, 0xbeb912d43fb6afdeU,
  0x3dc63633bf65e631U, 0xbedb32ec3f407809U, 0xbf0a5345c0264fd8U, 0x3ee90a3bbf0fe37aU,
  0x3d5e7a53be7de8c3U, 0xbc814dc8bf10b0c5U, 0x3f442e02bf58d598U, 0x3ec9633a3fce7aa4U,
  0x3e10dbccbeaf4d8aU, 0x3c81b471be489f2fU, 0x3e97e708bf30654eU, 0x3d55bd4a40475813U,
  0x3e9bf962be4bd87cU, 0x3f8818e03f7b5785U, 0xbfa98e5bbf476616U, 0xbf96c4533ec95b01U,
  0x3f5418713f3d217aU, 0x3d4dc2383ec801a1U, 0x40016c49bd327f38U, 0xbdeb44853f56bbbaU,
  0xbd9b351a3fdf8ef0U, 0xbbfcbd803e401cbdU, 0x3eea1ee0bd99f662U, 0xc01f2c4e408ec6d1U,
  0x3e8557ae3a27647aU, 0xbf97e38340098754U, 0xbf0ae35d3ebb87b4U, 0x3f22eb79bcb849ceU,
  0x3ef5e8293f6e866dU, 0xbd4728533fda7e6dU, 0xbf0d70913f360e5dU, 0xbe6885ef3f0867f9U,
  0x3d6f95f34013b2b1U, 0x3e7129623f3d2079U, 0x3f45087bbf670d53U, 0x3ee9b9503fb590aeU,
  0xbeb48defbe6a21b6U, 0x3f26f0f6bfa1ec94U, 0x3f050c61bf15cf19U, 0x3edf17febf1cb1f1U,
  0xbf2791d83f984060U, 0x3ef5a5583e9e0ad2U, 0xbe9a07973dd14a74U, 0x3f30185a3f3c0594U,
  0x3f0873df3e386f85U, 0xbeac18353ec67c32U, 0x3ea339b33eade430U, 0xbf9db21abf95ed12U,
  0xbf03f7b13dd572b9U, 0x3e9293793e77c858U, 0x3eb976a73fdc3ac6U, 0x3f601637beccf516U,
  0xbf0191863e6f49fdU, 0xbe3e645dbf285cb6U, 0xbf68db57be3e154dU, 0x3e61fd7dbe988d41U,
  0x3e99f3723ecc5b9eU, 0xbd669194be8f2659U, 0x3fd3b49f3d26892eU, 0x3f1b3be8bfb126b3U,
  0xbed56b91bee5dc41U, 0x3f310866bdc7ad2cU, 0xbd43bc05bd3f7f9bU, 0x3f469e2c3f187ba2U,
  0x3c8e4153be8581e0U, 0xbcdbe022bf7d8095U, 0x3e607ebf3f357b24U, 0x3e1ccc073f045a71U,
  0xbf804941bf9f7129U, 0x3f6710deba6ec28bU, 0xbf556119be7325d1U, 0x3e2779fbbfb14475U,
  0x3c1e6118be881e18U, 0xbeff7580bfad5533U, 0x3ef6d47dbe46473aU, 0x3e536af13e5657f1U,
  0x3e0627e53f8ca5edU, 0x3efdf24dbfca38aaU, 0x3f0f0ea3bda67eafU, 0x3fb7a3fabde71447U,
  0xbe2421863da5f680U, 0xbe543c7e3ee94a30U, 0x3f1a2c0f3e293299U, 0x3ee4d302c0227c14U,
  0x3d972f003da202aeU, 0x3ee0095dbec92e1fU, 0xbccc9291bd594595U, 0xbf06cef1bc8a8bf6U,
  0xbdf8ab4dbd7106f2U, 0xbde64403be2c9617U, 0x3e5015893f12dafcU, 0xbf3f79963eb3df2aU,
  0xbe388fbc3f76b0acU, 0xbe6347edbec9543eU, 0xbf185ad4bde37b85U, 0xbf9303b4bebd0398U,
  0xbed383e23e28f866U, 0x3e553299bd0b3ca9U, 0x3e96d18fbfb6068fU, 0x3e32bf6f3f730667U,
  0xbeb286f13ef383daU, 0x3e59c5dabd7fd12cU, 0x3d3dee37bef62760U, 0x3f0ad6943ef43f57U,
  0xbf8069f9bed7667fU, 0xbe5e95a83e1645e9U, 0xbe27d1413dba4a9bU, 0x3d74d1a63ece6895U,
  0xbe41f0cf3e91a50cU, 0x3de19f8d3ee6c53eU, 0x3f5b40b33f009df0U, 0x3ea5768e3f214a8fU,
  0xbf0c58613dc2b15cU, 0x3e98444bbf52b18cU, 0x3f066ed63eae4caeU, 0x3da32406bf72b2b0U,
  0xbe1396a53ff1736fU, 0x3f80fc98bf0e34acU, 0x3e93dfa6bf2185f5U, 0x3e476559bfb1640cU,
  0x3e7cac08bea93cf8U, 0xbef446cdbf9ff098U, 0x3f03aa513f95ce69U, 0x3ee1d3e5bf04a2d4U,
  0xbdb9b3f4be367cd4U, 0xbc8fc7943f294e02U, 0xbf4897593e8ac1ecU, 0xbe9ec0e43df32335U,
  0x3ecc4b4fbe191996U, 0x3eaf7b10be5b98ebU, 0xbd96fe5cbef7019dU, 0x3f3d0737bf978ac7U,
  0xbd68905dbe3e0ad8U, 0x3e890acfbfd8517fU, 0xbd4ab6df3ea5155cU, 0xbc9ead913e94c8aeU,
  0xbe0736babe8011a8U, 0x3e07836ebf5a09eeU, 0x3dd11250bf3aa6f9U, 0x3f8c552e3e8312eeU,
  0xbf891d85bf4bfa76U, 0x3f09a1d0be4f501cU, 0xbdd7bca9bf266fd7U, 0x3ecb810dbf6115f1U,
  0xbee8792fbe04c46bU, 0x3e77d5fdbf76a5f0U, 0x3e94bd7c3d9d6643U, 0xbfdc1b9f3e15bb75U,
  0xbeb11295be0c5637U, 0xbe22a2f03f827483U, 0x3e06a1eebf49dba7U, 0x3dd318c43eff8f97U,
  0xbf5048b23fb2354fU, 0x3ed8a1473e2ce917U, 0xbf3202363dc9d55cU, 0xbf99dcb93ece7f89U,
  0xbf174f49bda4e6ccU, 0x3e97f63bbeef754bU, 0x3f599dd3bf064db5U, 0xbf67804bbe81203fU,
  0xbd23c329be3d5ef6U, 0xbe58fc6f3f024889U, 0x3eb178c13ec5610cU, 0x3e8de776bea1e7e3U,
  0xbf0ca888bfcceb4dU, 0x3ec3c05dbe84e5ebU, 0xbdd95a0a3de64033U, 0xbf80482e3dfe3e8cU,
  0x3f063e8b3d1031c9U, 0x3cd3e21fbe1de959U, 0xbe6c5515bf104152U, 0x3cc46c733f042defU,
  0x3ed062403d0d238eU, 0xbd5679afbe8fa2b7U, 0xbe2df80ebf1bc54dU, 0x3de736943bd012f7U,
  0x3ef638c5be3e7a40U, 0xbd46fc483e1c9608U, 0x3eb0f83c3e03f2dfU, 0x3e05235dbe8e0f31U,
  0x3dfb58f33ec3c8eaU, 0xbe210406bf134df1U, 0xbdaa57e53e4f4472U, 0xbf6964e83eed7a95U,
  0xbe1d5d25be92ca97U, 0xbe1d821b3f8b5970U, 0xbdaefed6bf06c9eaU, 0xbeda85143d398606U,
  0xbeee5034bf217a03U, 0xbe475782be602df6U, 0x3f22ff063e1d6cc2U, 0xbef75960c007f65dU,
  0xbe8e615e3ddc08e5U, 0xbecc2f12bea19990U, 0x3cf3cde5bef576d8U, 0x3d7b45abbdc967cfU,
  0xbf00d5393c9ec4a9U, 0xbea9b0f33f81be93U, 0x3e8993183d8eadd8U, 0x3f7177f83e872ad5U,
  0xbe22b0b4bf4c340eU, 0xbec5387f3e3942e8U, 0xbe085d7ebf165de9U, 0x3f2e46c0be0daa9eU,
  0xbf058de83d5bdaaaU, 0xbd7ca7b9be4aa5d2U, 0xbe3fa85ebf8364a5U, 0xbe6d6bb43e4b4c24U,
  0xbec8367c3dc6778cU, 0xbd5fd3503e99969dU, 0xbed6a8bebecfbd57U, 0xbf095948be578029U,
  0x3f017d33bd035fccU, 0xbe1cceba3ebdc409U, 0xbf387a68bb3979f2U, 0xbdc4d0453e34c942U,
  0xbe2546a4be80c6a0U, 0x3e82ce843e744b99U, 0x3caad311bebb2fcbU, 0xbf897a623f0c5e9eU,
  0xbe1a17ef3f38bf8aU, 0x3d5a30fdbe85766bU, 0x3fb9472bbe995b41U, 0xbf00a7fd3f04aa58U,
  0xbea6c492bf3f31ddU, 0x3e8d3901be59b234U, 0xbefdff6bbf057109U, 0xbf717ac8bf0c460bU,
  0x3e3a852fbdabc48dU, 0x3e72e5e13eae3289U, 0x3eeddd0d3f179477U, 0xbf54e3fb3f3e11a7U,
  0x3cb44faa3e9b3ff5U, 0xbdd968f13e014fd3U, 0xbed409e7bef77a49U, 0x3f25e0c33efb993dU,
  0x3d0fa5f53f4c801cU, 0x3eb76975be035eebU, 0x3f8495a33df392b7U, 0xbf8763a8bf1eb08dU,
  0xbe7cdb81bc44a00dU, 0xbe93570e3e0d2dcfU, 0xbea55125be3654d2U, 0x3ebfc8b23ef800e9U,
  0x3ebeaa15bd89db40U, 0xbe1fef38be265d1dU, 0x3da12c92beabf742U, 0x3eac3b12bfadb51aU,
  0x3ee7551ebe3a3d8bU, 0x3df4989e3e53a4a2U, 0x3f0bf7c5bd103ed6U, 0x3ea35ea93e6bc715U,
  0xbed9e2e7bf4a618bU, 0x3f8072a5bf69fa74U, 0xbed5ceb3bf0fd5b0U, 0xbe869c66bd939c7cU,
  0xbec2640c3fce34c6U, 0xbd0042dc3f6d9c97U, 0xbf8c9733be9765a2U, 0xbf6e7d403ea324adU,
  0x3f3292bc3ea2111aU, 0x3f8f7bf2be410674U, 0xbb5c89a4be50a84eU, 0xbf678910bf2a2f9bU,
  0xbe80da46bea39e05U, 0x3f352790be944b1dU, 0xbfc6f32c3e907400U, 0xbf8f35f5bf25ccd0U,
  0x3f6f5eb73d8885a0U, 0x3d7918b83f1d9b19U, 0x3ec8ce9d3e849f14U, 0xbe52fe07bca2b50aU,
  0xbee92583400ffc4cU, 0x3f9ea283bd1b948cU, 0xbe64de913ea02015U, 0xbf9bf7ddbfe30541U,
  0x3f3ff5c03e61952aU, 0xbf9868513f49b53eU, 0xbf1c03103e951d97U, 0x3d8150013ebc2b54U,
  0x3e643287bdd9d460U, 0xbea931c13f93b59dU, 0xbf061fef3ed84999U, 0xbeb9f9fc3d7051c6U,
  0x3eaec5e3bfb1bb27U, 0x3da2603c3f7951bbU, 0x3ef1ef4abee25ffdU, 0x3f850a333f41e30cU,
  0xbe72e2dc3d9b6942U, 0xbf190cb5bf835a08U, 0xbf0dac0ebe9725a3U, 0x3e9698bf3ed1f9f7U,
  0xbe05b7f03f83fbeaU, 0x3d4a7cd7be669be7U, 0xbf0450bfbf05d4c6U, 0xbec6c4cd3ef19800U,
  0x3f504100bf6829e6U, 0xbee5a55bbd67c762U, 0x3f91b6a9be07d638U, 0xbea973ebc0485f89U,
  0x3e2587fd3eca97ddU, 0xbf1502833eff99cdU, 0xbf5b89f1bf977ddaU, 0xbf087f1b3d87fb4cU,
  0x3b06763ebf49b9bbU, 0xbe3314073fd8eeedU, 0x3e3392223e177f8aU, 0xbe834caebd075569U,
  0xbd33f8753f7a3e53U, 0xbea1b6ba3e440ea1U, 0xbf049b06bf41ae42U, 0xbf403bd6bfa59d63U,
  0x3df5d1edbe7eda52U, 0xbecc8d6abd879e2fU, 0xbef8708dbebe8d87U, 0x3e9fc02dbddbfa6dU,
  0x3ec8d9563f730ddcU, 0x3d0850af3e722055U, 0x3ced8f103d9d8f39U, 0xbd93b862bd8ae110U,
  0x3c8a102b3e3aa46cU, 0xbe87af6f3f30f8c5U, 0x3eb85a303ed47866U, 0x3c1bea3f3f43eeacU,
  0xbef15773bf8c4e32U, 0x3e829bb3c01251f1U, 0xbf4c9a783e743b6dU, 0x3ebd76a03edb712dU,
  0xbec9ff1d3fe8235dU, 0x3ea93832bfbdbae8U, 0x3d60bb143f1a8591U, 0xbf802b4e3f092308U,
  0x3f1994c33f1111b0U, 0x3fa02161be61fc5fU, 0x3e948986bf8e2075U, 0xbf2892e0bfb5ecc3U,
  0x3d81b568bdb5c39bU, 0x3f2fc9373cb7a85cU, 0xbf9928923f8972e5U, 0x3e410c713f840632U,
  0x3fafb5793f73e65dU, 0xbdbce77c3fd13489U, 0x3d2a72afbe89b2a7U, 0x3ef710f93dd09cf4U,
  0x3f8eee4cbe0c3e0aU, 0x3fb16fd63dba4577U, 0xbd831416bbe4fa3dU, 0xbfbb716ebfdc3097U,
  0x3edd85fd3f039e9eU, 0xbf585a9fbdb8b1d1U, 0xbf60dea83f84032bU, 0x3dcf9615bddc119bU,
  0x3f29efc7bf39247aU, 0xbceec80f3f10da35U, 0xbf347cdabc9e98a0U, 0xbf3c93dc3eb0c557U,
  0x3d717aabbf242e00U, 0xbe9c4c663f811482U, 0x3f824ea5bf62282aU, 0x3e8937053f23f55cU,
  0x3d8c84323f236323U, 0xbe7b1fd9bfff61faU, 0xbf32164abde3d2b4U, 0xbe3f92b53e7f0bfcU,
  0x3f10b1f9bfb33d68U, 0x3db1ed253fd6b38cU, 0xbf73bb693f65b100U, 0x3e15bbc6bf9bdebaU,
  0xbf4e5cbebfd3d0c9U, 0xbf5525f8bd9e3624U, 0x3f065eeb3ed24e42U, 0x3f29e101bfbc16faU,
  0xbd2e14cf3e6a0373U, 0xbf09ba60bcd2ff39U, 0xbed7969c3f7bbb98U, 0x3dbd0682beff4d16U,
  0x3ede4cc73e7ec35cU, 0x3cd9732dbfcf4142U, 0xbf25c2b73cc05191U, 0x3fa4f1fabe1921c1U,
  0xbed276983fa27544U, 0x3e537634bdaaddb2U, 0x3f26ee37bee987abU, 0x3e5c7f09bffbcecbU,
  0x3faab7d73f526efeU, 0xbe8ee4d1be6387f5U, 0xbea0816bbd241a5eU, 0xbf2cb9873df71b62U,
  0x3f28107dc0109938U, 0xbd6debd5bf4ecd27U, 0xbec81db4bf752b13U, 0xbdadb5c9befdb26aU,
  0xbc929e6abf95faabU, 0xbe1f19103f146ea0U, 0xbf3d79dc3e265747U, 0x3f5c058dbfc263e0U,
  0xbc6b13f0be0cd0e6U, 0xbd8943adbf89c0b7U, 0xbeb2adb0bff24f60U, 0x3ea2e7fdbf1bdbfdU,
  0xbceb8029bfe57279U, 0x3ea5b5393e9232e8U, 0xbed4cb8bbe44cea1U, 0xbeffd26abf8135abU,
  0xbf8fd938befd5e46U, 0xbd9c568cbe04712bU, 0xbefd98e3be7bb4a1U, 0xbec55090bf83c858U,
  0xbdb3c85f3eb2e0a7U, 0x3d7a5bcabe884e5bU, 0xbe0172a0bee9ceb0U, 0x3f0251f8bf185ad5U,
  0xbe563f92bd3af77eU, 0x3ebe4163bfb23de1U, 0xbe90fbb1bbbbca41U, 0xbe6d1b76be6e8cecU,
  0xbe1377043dea498bU, 0x3e879952be64bc0dU, 0xbee8626ebdd44aa4U, 0x3daa9830bf2312a9U,
  0x3eb3e635be21c867U, 0x3e2439ff3ef92b03U, 0xbf11896fbf59edf5U, 0xbed9a4a2be51cb65U,
  0x3c9a25bb3edaa3b5U, 0xbe3d6b1a3e7d760dU, 0x3eb8cccb3e6b6cbfU, 0x3eb93558be447905U,
  0x3c95504d3e41fe70U, 0x3e252db33ecd83edU, 0xbfb5e985bdb70fe8U, 0x3e02f66ebe9bc115U,
  0xbf65bc6e3e951219U, 0xbe88234ebf5d1fbaU, 0xbf855f9a3f9c0946U, 0xbe7cac4cbee8fa06U,
  0x3eaeb1713e042667U, 0x3e08c8ffbead6e68U, 0xbf280dcfbe47f664U, 0xbe248f63bf9d2ebeU,
  0xbf0b77d23f6734e4U, 0x3e33ae7dbd974ba8U, 0x3ef360223eb03ae2U, 0xbc302d91bf979b27U,
  0xbef1030c3d22b59eU, 0xbc545395bfc98132U, 0xbe884a973e3cb554U, 0xbdb713fabe986feeU,
  0x3f3a4f09bcc9f9d5U, 0x3df04de23e79ac74U, 0xbf53e268be44610fU, 0xbe31304abeef7e8bU,
  0xbe862c35bf642278U, 0xbe3729e5bdcfb8d0U, 0xbeeaea403eb5a11fU, 0x3f83b94cbffff766U,
  0x3f07806c3f68ab42U, 0xbe63c830befd4c66U, 0xbe64dc8b3e59ce89U, 0xbf2e2a22be424b26U,
  0x3f30664fbf96f952U, 0xbe726d23bf551630U, 0xbf1f05bcbf56694bU, 0xbed240fdbecdd899U,
  0xbf7003cdbfc3acd6U, 0xbfb276b93efb1c07U, 0x3d3a35b13faa01f9U, 0xbf1f0a52beb56093U,
  0xbf0549b8bf17534eU, 0x3f889298bef7435bU, 0xbedc34f73f093d94U, 0x3f21effc3e95f283U,
  0xbe8ed9ee3ebccd0cU, 0x3dd088044005e546U, 0xbfc2750d3de8783bU, 0xbe8f8f7d3d1af2acU,
  0xbc02d90a3fae0c7aU, 0x3f139c823d4c63beU, 0xbe23dbaebd7d7003U, 0xbee1dcdebffb6178U,
  0xbeaf4284bf15f7b2U, 0x3f3a506bbe12c5faU, 0xbf8894f53da9c90bU, 0xbedbcd25bbd794deU,
  0x3f31dfb0be82bb24U, 0xbd8661043f9878e9U, 0x3f0e2603bf0373aeU, 0x3f349dcf3e383bc7U,
  0xbe886dd83fa717d3U, 0x3f8fad153c60de09U, 0x3e8490103d5367b6U, 0xbf3e473dc0199e64U,
  0x3f2263833e1eb3c6U, 0xbf5fc2fd3f60f41cU, 0xbf51edfe3f9b0555U, 0x3f0fc8ae3f8222bbU,
  0x3ea989a83e35fa37U, 0xbe8586e03f0be193U, 0xbed698333e568a84U, 0x3f1121103e12fffbU,
  0xbd4101a9bf7c6070U, 0x3e64d8de3f35773cU, 0x3eb3e635be520706U, 0x3f2eea583e1b8c23U,
  0x3e0762bdbe220922U, 0xbdee4ba5bf802fc7U, 0xbf337b693ee8ef7eU, 0x3f8aa1943ed5923bU,
  0x3ce764b33f8cc0c6U, 0x3d8e6c133ec2ea2dU, 0xbf16ca94bf872445U, 0x3fbbc58b3d003e23U,
  0x3e2207d0bf4cefbdU, 0xbf255446be770333U, 0x3f721a45bd3b2155U, 0x3e280323c0440718U,
  0xbd53f1713edb8c4aU, 0xbeecf4bd3f3e21aaU, 0xbf254f6bbf392a99U, 0xbf3f7dd0bda68198U,
  0x3c828259be8895efU, 0x3d0504ec3f3de7aeU, 0x3d494f203e8bcc97U, 0xbdac6990be8d6493U,
  0x3d622b823f3c40a2U, 0x3c8385d13e9df4cfU, 0xbf1b0ccbbef7878bU, 0xbf6a2d04bf826797U,
  0xbce19ede3c1ca2c4U, 0xbe0d9a4dbd9bab6dU, 0xbe0f0ceabfb4c3d8U, 0x3ed346e93b95207bU,
  0x3e874d5b3f8694bbU, 0xbecf360fbe9157c5U, 0xbd336eefbec3e8c1U, 0x3e843772be7cc86bU,
  0x3e75bbca3dc2f646U, 0xbed064743ecec8dbU, 0x3f03c71d3e543a34U, 0x3d450db03efca2a9U,
  0xbef16e20bf1b3838U, 0x3e7c469ac01a79e3U, 0xbf8a9ca93fee4b6dU, 0x3f713c243f0a5438U,
  0xbf16142e3ff0c530U, 0x3ea048f0c007afa4U, 0xbef03e17beeddc47U, 0x3f743a7dbf30500fU,
  0xbd1adc133fb93f27U, 0x3f983167bd9b9de5U, 0xbe67679cbf715e07U, 0xbf2c8b49bff84332U,
  0xbe925b6ebd954778U, 0x3e0f9087bf4e22ffU, 0xbf1ea261400b2789U, 0xbec273be3f2d403dU,
  0x3f6fee003f3052c3U, 0xbdd710773f1d17f9U, 0x3b27e34cbe6e96e0U, 0x3b05d7ebbe38b408U,
  0x3f183f253f2b05b9U, 0x3f54f2f03c4aacb2U, 0x3d3b5831be0f9088U, 0xbf260d84bfb70a91U,
  0x3ec46abf3f088f20U, 0xbf10765bbeccfc10U, 0xbf621db63f71832bU, 0xbe152372bf14ad19U,
  0x3f1561c5bf94f69bU, 0xbed7ec2b3f055d35U, 0xbf4603f1bc71d174U, 0x3eeec373be8c7171U,
  0x3e8d6999bf27d89aU, 0xbe8a115a3f4d8572U, 0x3eb9e9e6bf245ee3U, 0x3ea283983f414a76U,
  0xbd86970c3e4d8d86U, 0xbf2356abbd9fda3fU, 0xbefc96ddbf07179aU, 0xbe930809bf2da59eU,
  0x3f2d5838c0082322U, 0xbe9cd04e3f710398U, 0x3f50c22ebe0b4be7U, 0xbf12b029beffca8eU,
  0xbf9103393f8de86bU, 0x3f630c68bf328d10U, 0xbe500edfbedc20e5U, 0x3f6a85e3be8bf077U,
  0x3f1ad1cabb73ee77U, 0x3e12cdffbf1c39c7U, 0xbf82533cc01d080bU, 0x3eb8ea30bd6fc071U,
  0x3f3c6e7cbeeb2fbdU, 0xbdd66669beb90fc9U, 0x3f2cb30ebdd2ba28U, 0xbf922143be65c534U,
  0x3e769ca0bfa4a911U, 0x3df461663eb8d9a4U, 0xc00e6d68bc2cd7a8U, 0xbda3666b3fd0707fU,
  0x3f52d6823f05165dU, 0xbf8c3f923e911af6U, 0x3cf80fee3ec9adddU, 0x3ee9cc07bdc5d0d6U,
  0x3e58d7b9bebd5b5eU, 0xbed87dd53fcaf7c8U, 0xbe08796dbe016df0U, 0xbe09fc123e31ec46U,
  0xbecd99e24000d3bfU, 0xbfa32fd73ead2fb0U, 0x3e2736c13de32067U, 0x3f4e68b83fb3d27bU,
  0x3ed66ab03e8af6a7U, 0x3f0b7b243eb40e55U, 0x3eb4221fbe4c1c3aU, 0xbe903903bf6e5363U,
  0xbebda6f8bff82becU, 0xbee73147be491dbbU, 0xbf784145be753a22U, 0xbf896e09bed26624U,
  0xbf57acfe3dd0f708U, 0xbec3016bbe5deaaaU, 0xbe662f383e18ca9cU, 0xbe004ecf4046431fU,
  0xbcfa60e13de4f3e1U, 0xbf1bb34f3f26ac99U, 0xbecd824bbde699ebU, 0xbd6793c6be885b8dU,
  0xbd48e678be23bbb5U, 0x3d7c1953bfa9d5b8U, 0xbe7fbc59bedaf9b6U, 0xbe3f0945beb941ecU,
  0x3e4bc6d1be9ea2fdU, 0x3e337a3ebe84b488U, 0xbe5017153e94830eU, 0x3eb9d1b13f9fd414U,
  0x3f53e05dbe3e26d0U, 0x3dd8dfdf3f48f7f6U, 0xbeaae23e3f220e0aU, 0x3e7918d4bdce4d01U,
  0x3e9624fcbeb0de59U, 0xbe2450003eb475aaU, 0x3d93d2783cff4e0eU, 0x3f31f6c7bf5f85f0U,
  0xbe09fdfcbe8526cdU, 0x3e6d239d3e4ed1b7U, 0x3f30f752bb81e103U, 0xbe485ff03efe664aU,
  0x3ddd4d69be326f1bU, 0xbe918873beccb4e8U, 0xbfd76bf3bede48acU, 0xbf1eb784bf686d4cU,
  0x3f4c0a95bf1990f5U, 0xbef6eb3c3dcd04d2U, 0xbe250004bf4e1b0cU, 0xbf13833c3ed4fff2U,
  0xbf17f37a3df7d2b4U, 0xbf1deed93e76d0a8U, 0xbf5c1bb33e620e4fU, 0xbfe4787b3fba8cf1U,
  0xbe4bcb6a3dafa723U, 0x3ef9bfbd3e9d4d30U, 0xbf30d3ffbf92d584U, 0xbd2e3f4f3e4881bdU,
  0x3eeb09ad3db645b0U, 0xbc65c966bfa14974U, 0x3eeed6eb3cf930d5U, 0x3c601bf43e2e89c8U,
  0xbdbf770f3f0d325eU, 0xbea6e4af3e881c4aU, 0xbf71163f3e866a8cU, 0xbf93f1e03fc7f266U,
  0x3ec940af3ef2108dU, 0xbf6736c63fd602feU, 0xbed3efacbeac758eU, 0xbecf41463eff8a43U,
  0x3e9c29cd3ec93febU, 0xbe6d31d23f996210U, 0xbf6a13b4becdcfafU, 0xbec9cd1fbe8dd8b8U,
  0x3f19154d3f36737cU, 0xbe9cb1b43f160790U, 0xbd2d53d93edeba8dU, 0xbea6fecf3f50a175U,
  0xbe6386f0beeeaba7U, 0x3f5b15173fbb7b63U, 0x3f33f881bf13fa3cU, 0x3fbc28c7bf7fe24cU,
  0xbecf93213fc0ba7aU, 0x3e6a229c3ea9a24bU, 0x3e962794beda1585U, 0xbdd5e5523e174431U,
  0x3f3359853f96d1d6U, 0xbce441d33f21208bU, 0x3f05f87fbe2d7497U, 0xbfee5e08bf24c245U,
  0xbf0e19d9bef94c2aU, 0x3ef70e56bf079c19U, 0x3f2e311d3eca2e06U, 0xbe053651bebfd97aU,
  0xbeb406853e270259U, 0x3e57b0c13e0be4baU, 0xbec011fe3d897079U, 0x3e1f07e73e0756e7U,
  0x3c88d1373f261d7dU, 0xbc304355be194d8eU, 0x3f19e44f3e7ac58aU, 0x3ed5d9e23e9cd0dbU,
  0xbf710740bf3dd7deU, 0x3efbbd973e856fd7U, 0x3ea6a883bf145df3U, 0x3f0ea0ba3f71ebd3U,
  0xbec1e56a3f801fc4U, 0xbd099ff1bf65420eU, 0x3b9479673fa6bc0fU, 0x3e912c03be2e1752U,
  0x3ec55894bfd031e4U, 0x3f400063beca6371U, 0xbdfa2c3dbe9d1169U, 0x3cc47ab8be4ae702U,
  0x3d8d751c3d439d38U, 0xbee8ed513f84b584U, 0xbdbd0e53bedc2592U, 0x3f7c7c323d209121U,
  0x3e6a660d403152f0U, 0xba56ea8e3e833010U, 0x3f41d8bc3d2623a0U, 0x3eadcc483ef24c95U,
  0x3f02a7683f0ec6b5U, 0xbd6383453b7fd2f3U, 0x3fd46efc3e3f41c4U, 0x3e159648c00e6b1eU,
  0xbe1b14113e84b83aU, 0x3e77e089bf10baf8U, 0x3e94182dbeee59f9U, 0xbf0f0f2bbf03ce8cU,
  0xbe4146163d0cf420U, 0x3ea2bb1a3f8b2939U, 0xbd356d033e9a4a00U, 0x3e5c6a063ddb3319U,
  0xbecee71d3f200938U, 0xbd9d7179bdab5293U, 0x3f07d729bea28502U, 0xbf670ea3be7aad8bU,
  0xbec7dde33e9b3f63U, 0x3c5bd5c8bee61293U, 0x3e251441bf8b61b2U, 0x3f43cf653f6956f2U,
  0xbe0c9df73ed8a084U, 0x3e8f21cabf1d1bfcU, 0xbe25da1cbe7d3087U, 0xbeffc2193f225032U,
  0x3e0d4794bf0f0bf1U, 0xbecea7bebd868ebdU, 0x3d937d4f3f051893U, 0x3ec1ac2ebe3260a1U,
  0xbe7e6b83be257044U, 0x3e825fc53f59d116U, 0x3e9ba48bbee50f3bU, 0x3f4372c1bf71718aU,
  0xbf0e00afbe8be2d5U, 0x3e2e4753be9cfb03U, 0xbe605c9c3e99be5cU, 0xbf6bebfd3ee181c2U,
  0x3e0bc070bebeb764U, 0x3f6d7d4ebe335f59U, 0x3e7ecffebe261608U, 0x3ef282653ee1340cU,
  0x3ea78997beff35c9U, 0xbde83762bd3986a5U, 0x3ed0704b3f1b4bf1U, 0x3e9274e4bf42a168U,
  0xbe89aa7abe648f23U, 0x3d5c1dde3f1105aaU, 0x3ecf6fe33eb3c9afU, 0x3ec801b73de73211U,
  0xbd170c653e18713aU, 0x3ed0bd1abe634d71U, 0xbd9b8dcebeb98634U, 0x3f0bc7f8be5f4045U,
  0xbeac3a0bbf31caa4U, 0x3ec05d3bbe9f3e00U, 0xbe5fb7953f1368e6U, 0x3ee00d243ea3de1fU,
  0xbec269a4bb1d67caU, 0x3e9943b5be87b5c6U, 0x3ec4b0ad3eadf2e7U, 0xbfc37e383f9a641fU,
  0x3f78dc6bbe90e6abU, 0x3f5535cdbef02b6cU, 0x3e37fc33bfb825f0U, 0x3f14734fbee86f07U,
  0xbd1280c23cf69e59U, 0x3d5c18c4c0030d56U, 0xbe93a4e63ebf7c0eU, 0x3f0551693e2176faU,
  0x3d81487bbef780fcU, 0xbe3223a23f9cb91aU, 0xbe858cfebd87dfbfU, 0x3ef5daf839a19a40U,
  0x3f97918a3dcff30dU, 0xbebf69fcbe6e9ba3U, 0x3f41012abd9877eaU, 0x3ebfc8a8bf41db24U,
  0xbe0939f13dba83a8U, 0xbd8a7c693f86657eU, 0xbe3338b6bea53aefU, 0xbec66008be79e9bcU,
  0x3deb42b2be3c7b83U, 0xbe1f0368be364020U, 0xbdd9122f3ea7922aU, 0xbdb008613d21810eU,
  0x3f83d1e13f53af01U, 0x3c375ba83e8e65a9U, 0x3f649e09bd4de66eU, 0xbe9287ccbdd5033dU,
  0x3f0de2063e502422U, 0x3dc3d9e23eb5da3cU, 0xbe6b8a313e483576U, 0xbe26e00bbf7cf22eU,
  0xbc06e086bea6d6d9U, 0x3e1c3bb03eb87c50U, 0x3e080b5fbcb506bcU, 0xbeecdc13beaf0fc5U,
  0x3e3e0515bef37231U, 0x3e032e0b3e2c4f7eU, 0x3c15a5053e5f515bU, 0xbdb6293dbcf24b99U,
  0x3d186fe13dc44768U, 0x3c4d1d5bbf7165c0U, 0xbd29fd8b3f928f84U, 0xbf0a63673e004c6bU,
  0x3d2ec298bf19a0caU, 0xbea58dcc3e7d891bU, 0x3fb8e652bf561a5eU, 0xbcdca083bee389b8U,
  0x3fc4ec563e762c0eU, 0xbe08f2663e94345aU, 0x3f1be17b3e342ec0U, 0x3e247fe7bff0103dU,
  0x3e80b5a53e9f7e02U, 0xbe6ac4c43ed38ce1U, 0x3f0a9de53e10a243U, 0xbe57d8fabf36d983U,
  0xbe21782abe6e3a54U, 0xbcac71e8bf4bd9e9U, 0x3e2ce2eabe538c1cU, 0xbf223e0d3e81885cU,
  0x3f85e0603ecde7e1U, 0xbd96f386bdf0f0ccU, 0x3ee6d3683d30bc37U, 0x3e49bcb33f00f0bbU,
  0xbe192f12be42f0abU, 0xbe07269abf03a3cdU, 0x3d118f563f2ef621U, 0xbf05a44bbea4f132U,
  0xbd1c1717bea24090U, 0x3ca5b78d3dc22e3aU, 0x3ef0de7bbebbf24cU, 0xbf2291793ec54cc7U,
  0xbf09ac08bf304ae3U, 0x3ec645873d8cd3e7U, 0xbfedc961bd9272a8U, 0x3da0aa343df120edU,
  0xbded79283ec36ab4U, 0xbdcf1f1bc00884eeU, 0xbd5877103fc1e257U, 0xbf0d7e113fbf3589U,
  0x3ecd30eabe8cfe07U, 0xbdb2b47cbf34a814U, 0xbf320dea3e867c59U, 0x3bb25960be3900a6U,
  0x3fde1d583fa32489U, 0x3f4a7993bdce927aU, 0x3f38a2953e06b339U, 0xbf9af37fbf4ab6d9U,
  0xbe1d5b23be1b7847U, 0xbe804fd5bf8cf1ecU, 0xbebfc3f53de78c6dU, 0x3de5e5c3be032634U,
  0x3d9c6dbe3f43624dU, 0x3e815676bf1472e5U, 0xbd56514dbee2b0c0U, 0xbf4259bd3e84ae8dU,
  0x3f4535633f8fd0bfU, 0xbdb4b1d23e1f03f3U, 0xbf5b0c273e484d53U, 0xbf2b1eaebe7b94b7U,
  0x3f203e073e94e501U, 0x3d521823bf3c18bcU, 0x3ee6fd4ebf51d8b3U, 0xbf09b0c23f23d928U,
  0xbe563589beae7e8cU, 0x3de9b9a03e8ea520U, 0xbe89c286bf04c830U, 0x3ef2dad5bec14f17U,
  0xbfb1cb063e4703abU, 0xbebfe4afbe8b802eU, 0xbf09c6d13e45f5d8U, 0xbeb6f71e3e037e3cU,
  0xbd8695a43bc10416U, 0x3ebadbfebf8bc1e4U, 0xbb57b4013fe7d0dcU, 0x3b6b2df3bf1da241U,
  0xbd74327abee69807U, 0x3e45e5653f9a4053U, 0xbe9f5bacbfa1ef8bU, 0xbfb909343ed83161U,
  0xbeb8219a3e4609ecU, 0xbd852d5c3ca5fba2U, 0xbeb0d6813da22c63U, 0xbe73feefbe5325afU,
  0xbea86629be893c73U, 0x3ec6b1de3e735cedU, 0x3caaca423f6c45b2U, 0x3dfe63953e56ffa7U,
  0xbde183c13e4cb6a0U, 0xbe5ddf353fc678ccU, 0x3e6e629d3db1f9acU, 0xbe8c214cbf951417U,
  0xbc8fdde73f7d0738U, 0xbe16a02ebdc15320U, 0x3f2b14d4bebccb9aU, 0x3efaf8f93f9758beU,
  0xbde9fe14be1054a4U, 0xbe502ce0bf264a8fU, 0xbe988dd9c00c4f23U, 0x3ea123b83d82cdc2U,
  0x3d61ab0f3e7e5ca2U, 0xbee620ae3c08eae5U, 0xbe95c25a3efb162dU, 0xbdcbead43e23b229U,
  0xbe007e51bc890d57U, 0xbd9b1e72bce24f55U, 0x3d3d3db8be800fabU, 0x3e5149fa3e5e4ba2U,
  0xbf2d8a56bdbfdd11U, 0xbeaf9edfbf301476U, 0x3dcd5e9f3fc297f1U, 0x3e11f3d6be4bd64fU,
  0xbd4d7ce83ec65b59U, 0x3ea20f92bde250feU, 0x3efd0251bdf0f787U, 0xbf68b79bbecf7450U,
  0xbe8ef040bf721a5eU, 0x3e98eca13bbbf807U, 0x3ef6f68abe38f46aU, 0x3eb6d7e63ec6f083U,
  0x3d4233b83e306f4cU, 0xbe40159cbe8d99a5U, 0xbdb87c893feae4b9U, 0xbd3071cfbceadee6U,
  0xbd97bd583e7c38a6U, 0xbe70ce3f3f5bc1c1U, 0xbea966d6bcb20f49U, 0xbe29dad4bf792619U,
  0xbc8dccfc3e861ff4U, 0x3d4e4e65bd3e5faaU, 0x3cd14badbd8e8591U, 0xbedc18633e627eb6U,
  0x3e6d48f73ed5ec48U, 0x3daec6afbf1817b5U, 0x3c23aee0bfaaa465U, 0x3d0ae790bdb5adc3U,
  0x3d11379d3f081564U, 0xbe889b67bced2278U, 0xbe87ab94bea8c2cbU, 0xbede4c723f2f8036U,
  0x3dbe85f2beea6356U, 0xbf0638fb3e7babf0U, 0x3ed733843ed40f32U, 0xbd2cfc183f2272d4U,
  0x3bb3a345be9c436fU, 0x3c7f01cabf34511fU, 0x3f0aad5bbef816f3U, 0x3ef293773b994848U,
  0xbdf3ddacbdaf103eU, 0x3e0417e6bf20ccc7U, 0x3e944dd6bfe02b4dU, 0xbdc53ff03f1afbe8U,
  0xbdaeb815bfcebab0U, 0x3f15f4113db78bd6U, 0xbea2440dbea9b602U, 0x3e969b553eb09069U,
  0x3c7da100be04aeb9U, 0x3e0e01ddbec86f87U, 0x3e5f3f963f4db1faU, 0x3f4bce31be79d84bU,
  0xbb9a590fbe69a55aU, 0xbde906ce3e32936dU, 0x3e4114cf3e026829U, 0xbef73d8abf9c25d0U,
  0x3ed6f0d13f853981U, 0x3eb550f7bbb82429U, 0xbe2247d5bd709c68U, 0x3f047174be38de0dU,
  0x3eacc272bd0429e0U, 0xbe237669bfa7c611U, 0xbea3de9abebb861eU, 0xbe0a3f94bdf83a04U,
  0x3dc94e1dbf3279d2U, 0xbee00a163e915c75U, 0xbe3c17db3f30c142U, 0xbeeaeeabbdc59141U,
  0x3dbbc83fbf708470U, 0x3ebe483a3e2a37d6U, 0xbf096dc1beb2c2d1U, 0x3e19d40cbb60d5d0U,
  0x40812cd5bf293e10U, 0x402aa66f3f0b67b5U, 0x3ec628423f50471eU, 0x3eaba254c092fcb3U,
  0x40872711c074ce47U, 0x3e9cf2bebf88f35bU, 0x3df3dc493d90c537U, 0x3e103d183ddbf807U,
  0x3e188112bd866437U, 0xbe1c1744bea6bfacU, 0x3e2fa59fbee22e2fU, 0x3e72334abdb18e48U,
  0xbda03be23d594b73U, 0x3c0b21fbbde8b3d7U, 0xbd67efa7be18adcdU, 0xbe9ff516be01cfa7U,
  0xbd1cd596be902491U, 0x3e356a513b9df3daU, 0x3e208ed6bbc3c1d1U, 0xbcafdd823e2c801eU,
  0x3cbe837cbe3b7d64U, 0xbe864c51be94da34U, 0xbbb4177bbe6ab0efU, 0x3de3a728bbbd7ccdU,
  0xbd75da893d8c3cdeU, 0xba06469c3e0530f1U, 0x3e2ee088be0a83a8U, 0xbe0803c7bdf93360U,
  0xbcf3ebc6be735501U, 0x3e4f4d50bd3c5096U, 0xbe6303fe3fe1de92U, 0x3cf8314ac0073ac0U,
};


ai_handle g_network_weights_table[1 + 2] = {
  AI_HANDLE_PTR(AI_MAGIC_MARKER),
  AI_HANDLE_PTR(s_network_weights_array_u64),
  AI_HANDLE_PTR(AI_MAGIC_MARKER),
};

