/**
  ******************************************************************************
  * @file    network_data_params.c
  * @author  AST Embedded Analytics Research Platform
  * @date    Fri Apr 11 16:51:09 2025
  * @brief   AI Tool Automatic Code Generator for Embedded NN computing
  ******************************************************************************
  * Copyright (c) 2025 STMicroelectronics.
  * All rights reserved.
  *
  * This software is licensed under terms that can be found in the LICENSE file
  * in the root directory of this software component.
  * If no LICENSE file comes with this software, it is provided AS-IS.
  ******************************************************************************
  */

#include "network_data_params.h"


/**  Activations Section  ****************************************************/
ai_handle g_network_activations_table[1 + 2] = {
  AI_HANDLE_PTR(AI_MAGIC_MARKER),
  AI_HANDLE_PTR(NULL),
  AI_HANDLE_PTR(AI_MAGIC_MARKER),
};




/**  Weights Section  ********************************************************/
AI_ALIGNED(32)
const ai_u64 s_network_weights_array_u64[1532] = {
  0xbe141f28bf122c31U, 0x3e4c7ec33e4926abU, 0x3db912803f56c670U, 0xbe283cf4bc13149aU,
  0x3d53bba5be7f7213U, 0x3d53330c3eaf3573U, 0xbe88cf593e632da8U, 0xbf536377baac5753U,
  0x3d0b4f543eb87241U, 0xbe2cb516be2e946dU, 0x3e4711f6bea11821U, 0x3ed0ceb63c8aec69U,
  0xbd8152ebbe394433U, 0x3eed71d93d01939eU, 0xbea1cc243df99e42U, 0x3eed48783d4ff81dU,
  0xbc4e7540bd1e3175U, 0xbc17883d3bf31343U, 0xbbcf77dd3ceadc60U, 0x3b6fb5a83c2ee8fdU,
  0x3d08a2efbc6deefeU, 0xbc266f92babfb6efU, 0xbd13f728bc2c9ecfU, 0x3bf1f3d63cd81a26U,
  0xbf1efcf0be599546U, 0x3f1a510a3dbbedcaU, 0x3f017189bd3bae2eU, 0x3e988388bf17ee43U,
  0xbe385d7c3de8f081U, 0xbed3abe3bc99b0e5U, 0xbea7716e3f3bda6fU, 0xbe11c6323edfaea6U,
  0xbe7ab2fdbe26e7ebU, 0xbda55189beb35d20U, 0xbd5009003d31dbbaU, 0xbe0efa4abe45d818U,
  0xbe5901d5be44f477U, 0xbf136c42be30a632U, 0xbde660b6be91af27U, 0x3d91b713be174815U,
  0x3e450f043db5ffd2U, 0x3e9d2bab3e7decc6U, 0x3ed23d013f06d558U, 0xbef956d03da29018U,
  0xbe80c147be313675U, 0x3e8ac946be0681beU, 0x3df2183cbe429f83U, 0xbe9ae100bed981b1U,
  0xbe3a4929be1ac2e0U, 0x3e5ecebabdc7c04eU, 0x3d9aa2cc3d786ba1U, 0xbe7c66e53d960dc8U,
  0x3dd70ad6beab561aU, 0xbd1e0e9b3dfdf283U, 0x3f195d413e301954U, 0xbe2205313daf10d6U,
  0xbd8afc3f3eaeef21U, 0x3e840d493df3994cU, 0x3e64dde43e8ecc83U, 0x3e8e3bb33e8f6286U,
  0x3dbf264b3e2e44f7U, 0x3d5858d33d97e9d4U, 0xbeda9c0fbe1713b7U, 0xbf0ee5c7bf2af410U,
  0xbcda5adfbd0ba6a9U, 0xbcd55b333d54d840U, 0xbd3d9b163d0ae7faU, 0xbd968041bd84aa2bU,
  0x3d68e8893d29f6bdU, 0x3cd0fcf63b062514U, 0x3cfa3113bdda962eU, 0xbc5daa133d67df47U,
  0xbe3cc416bf0e6d0bU, 0x3e259329bdc617f1U, 0x3e9e286d3e3cf0a1U, 0xbe0e6c0d3e8b3b53U,
  0xbd698a5e3d1d96abU, 0xbe9df6c1be53c1acU, 0x3d7a2bb7be556aacU, 0x3f042ee93e4518ddU,
  0xbdb6eb75be6c1c46U, 0x3e89b7d4bea48ad9U, 0xbe378f5cbe51c051U, 0x3f60e6403e8241a4U,
  0x3e399f313e305becU, 0xbdafccef3bf8ce62U, 0xbca1e8c83d075b24U, 0xbd9811fb3d530e07U,
  0xbed1799bbef45af2U, 0xbe24e2e4be8c3414U, 0xbe2bb966bf215641U, 0xbd6a57a53de69313U,
  0x3f36938e3dd55dabU, 0x3e5194fb3e495e3cU, 0x3de771963e8e5327U, 0x3ed700a63e6bd2e9U,
  0x3ebd2c073f8e2e3cU, 0x3e8528173e65a556U, 0x3e05870fbe9a9482U, 0x3da5ed6bbe71340dU,
  0xbecabca7bea456f2U, 0x3e26c229be02985bU, 0xbe880069bdfaa95aU, 0xbebabb6abe86f625U,
  0x3d50de633d465143U, 0x3d445115bdcd0b08U, 0xbcf577d23af7aceeU, 0xbd57ae7fbc544153U,
  0xbd68b8283bd3179aU, 0xbd81008f3c98a5a9U, 0xbcaf595c3c92f6c7U, 0xbdacf7343d08c1d5U,
  0x3e8feaef3e8835a7U, 0x3e8e2d0b3e4d138dU, 0xbdc36cf8be7d6224U, 0xbe9b844cbe9eb120U,
  0xbf50b3983ebef39fU, 0xbed42ecc3ebcb26dU, 0x3ed1e85fbd951141U, 0x3ed8c07f3b369bdcU,
  0xbe376ad8be67481eU, 0xbdb68456be3753beU, 0xbe2c2902be10daadU, 0xbdaa6046bd7385d6U,
  0xbe0cfe08bd6bfdf0U, 0xbe137535bdb7a7d6U, 0xbe008ce8be4d86d6U, 0xbd1030fcbe114242U,
  0x3bac5f29bedf65faU, 0x3d4bcbbe3e05da83U, 0xbe0840a6beba9302U, 0x3e490eb83f514d24U,
  0x3eb6027dbe820137U, 0xbd98c1dcbea6942dU, 0xbdaa606a3e374160U, 0xbe9f878d3da6a2f3U,
  0xbe19634a3e0b25b7U, 0xbca7db4ebdb24328U, 0xbea7d98e3d61d1e9U, 0x3e57d7793db4b467U,
  0xbc04010abee1aec8U, 0x3e638d68bdd73272U, 0xbd9055e6be8e8bbeU, 0x3f6815d2beac033aU,
  0xbc92a3d2bc499a8eU, 0xbd3a5febbd03a4d6U, 0xbd0a4acd3d360445U, 0xbd54465f3d1c7d5cU,
  0xbc90f5d23adeddb5U, 0x3cc4d7363cc7d605U, 0xbb3c3872bd284828U, 0x3a8809993c46a86dU,
  0x3aa002c63c06b6daU, 0x3cbd82dabd057ba2U, 0x3c73050cbcb3928aU, 0x3d0486fbbc65990bU,
  0xbcd3fe27bcbc1575U, 0xbcd1a5d93d07111dU, 0xbc3aa5193a0abe98U, 0x3c16fa37bc3d2ec2U,
  0xbe2cb1babda42c8dU, 0xbd3161b1bdfb2788U, 0x3d9f42033c9aaf93U, 0x3ec684c53eb26910U,
  0x3eec05d03e49a6d8U, 0xbd11dc2f3e138dceU, 0xbf05ef92be603c35U, 0xbea4ea0bbe905b2aU,
  0x3ee35161bf2de8afU, 0xbe25b8d63e588097U, 0xbebe86a13d87a672U, 0x3e0cbed73e6e7204U,
  0xbd6e1e5a3f2de9b2U, 0xbe2d8b4bbc74376fU, 0x3dbced6abe31d7f6U, 0xbf0cd2433d6f7aa0U,
  0x3e7bdbc73f1d2649U, 0xbe7db4adbcab8861U, 0x3da19051bd26b80fU, 0xbdef00abbe7c8295U,
  0x3c2aad4bbda8a65cU, 0xbd8981b03e5493baU, 0xbf1562aebe83ea89U, 0x3e2114843e5f3a61U,
  0x3ea38ee33e969494U, 0x3dcf2c49bdcd81b7U, 0x3ea47fe83ee9c0acU, 0x3e8f597bbef57d53U,
  0xbf0a7abc3e0ae508U, 0xbe4e7692be7a6172U, 0xbeab8adebdf14339U, 0xbf086899be2f7c40U,
  0xc0e740d0c10036b8U, 0xc137554ac0225be6U, 0xc1447392c0a24211U, 0xc094ea13c12a8e44U,
  0xbd8b326fc0d69022U, 0xc0bca5d4c1456b22U, 0xc0acc0f7c0ef1d08U, 0xc0c41e5ac1538bfaU,
  0xc0fd8f08c1374d3eU, 0xc03175c3c06da973U, 0xc12ee979c0220a99U, 0xc15478ccc137cfe2U,
  0xbf0d8e6bbd86a1feU, 0x3e11d2f13d128e73U, 0xbd63d206bc54d739U, 0x3d14854c3f0a698cU,
  0xbe7c9a6a3ea48600U, 0x3e8c1748bc72a506U, 0xbdf0302e3e948fb3U, 0x3e08e6f1bf31f2e8U,
  0xbe654f17be354e61U, 0x3e53c8023e496dbaU, 0xbd4025153dbeb6f8U, 0x3d558b98be463695U,
  0xbd8f3f16be41887aU, 0x3cd0ceb8bda9c7beU, 0x3e6bd3e73ee48e72U, 0xbcf5bc1a3d847aa2U,
  0xbe9b5eb53de9696bU, 0x3dc20766be880d11U, 0xbc141475bdb41a64U, 0xbf4866d1beb80258U,
  0x3eb19ab7be52dd2cU, 0xbd278ec83e85f185U, 0xbea76b78be228d7fU, 0x3e86f7bcbec9765dU,
  0x3e289581be6cba79U, 0x3d7ed1693eb70d51U, 0x3f51dc27be1227a0U, 0xbe9da5653f15508fU,
  0xbe6018003e0a82fbU, 0xbe3230683de8600dU, 0xbe0882743e16afa7U, 0x3e9401b93dd03a19U,
  0x3da5bea33e31c914U, 0x3e00cd6bbbd610a6U, 0xbea88d00beb74808U, 0xbf55fa5fbe50083fU,
  0xbd92b65fbe299a06U, 0x3e41f78bbd0d2951U, 0xbd5152a8bdaf3348U, 0x3db41a59bd79ff01U,
  0xbe3a12213eebbdbfU, 0xbe0d4b2b3d9a6569U, 0x3d62793abe772684U, 0x3dc553a3bf3b6accU,
  0xbe39d9eabe7453bfU, 0x3c0eabc8bddc9d79U, 0x3e0cf967bc458caeU, 0xbd03d583be7f0636U,
  0xbe496066be6376eaU, 0xbce02a63beb76281U, 0xbe37a6d33e2f0203U, 0xbe8990c8bc8847b2U,
  0xbe713523bdd6b054U, 0xbe30eb083e80fa69U, 0xbb0e1e4ebccb2d4aU, 0xbec10a3ebec97302U,
  0xbd53f3e3be39f64bU, 0xbe6f6b4ebd5e80eeU, 0xbe6f29eb3e0a41a0U, 0xbf181b29bea83312U,
  0xbdefd0f0bee801eeU, 0x3e1a3f6fbd06383fU, 0x3f39b67ebf3baf01U, 0x3ea7686bbea9a9e8U,
  0xbd62267d3dc74aefU, 0x3e7509c43f04adb3U, 0x3d02eae6be5030dcU, 0x3f2911873d811c9aU,
  0xbf0c38903d69cc95U, 0x3bf75a4c3da79ee7U, 0xbdac25423d159350U, 0x3dd8c1fb3e52217aU,
  0xbde4ef3abe37c883U, 0xbd92c78abd1e2770U, 0xbeba648ebe383016U, 0x3c3e4dd73ed895a5U,
  0xbe4a4bc03e0f087eU, 0x3ec0ee7bbdb3c0cfU, 0xbe951dbabc8904b2U, 0x3e398fd5be41cee8U,
  0x3c430a4b3d92aa4dU, 0xbddca0473b2bc7d6U, 0xbe02e05abdf13a97U, 0x3dd574303e3bbc32U,
  0xbde14b4abcbe65f4U, 0x3d3c772bbd7c2c20U, 0x3e8d3069bbc61bacU, 0xbe6935603ad5197cU,
  0xbe5e55b7bdc4a044U, 0x3e055ba03e824406U, 0x3df591093f03fb25U, 0xbc4454203e207f4fU,
  0x3e14ae1dbe791410U, 0xbdfda9eabe11168dU, 0x3e036ce33d832187U, 0xbe19810fbe2c092cU,
  0xbe15e43ebea0afd0U, 0x3d4c59663e8fdd46U, 0x3e8305c23e354c5aU, 0x3c677a4dbdf9bc65U,
  0xbe8b54013f502c1dU, 0xbc9cb4d4bdeffcb9U, 0x3e51270c3e54767aU, 0x3f123c033e1afc0eU,
  0x3eb8f8f2be0344bbU, 0xbdfb759ebd63ac47U, 0xbc870237bf178424U, 0xbcbdf8fcbf0ff6beU,
  0xbccc6d923e9f2f37U, 0x3e80b821bd9a93f2U, 0xbec6ba533e2f36d0U, 0x3d800474bedd6cc2U,
  0xbe1cac3abdced6c8U, 0x3db60f733cb01447U, 0x3e8904c3be288288U, 0xbe4383263eee36c5U,
  0xbdca6910bf27298dU, 0xbdb8ff9abcd9845bU, 0x3e9bdb5fbdd93610U, 0x3dd0a9df3f45814bU,
  0xbd37230d3e2b8e23U, 0xbd71f794bb4963d2U, 0xbf026a2ebf0a3bd0U, 0x3cf623b63fa85ecaU,
  0xbe0c3dd2bcf358f4U, 0x3d4732563e4d461cU, 0x3f13396b3d13f57cU, 0x3fa083953d853514U,
  0x3ecbacba3f29d46dU, 0xbdc392a6be0a58c5U, 0x3ed9bf9e3dca87d1U, 0x3eee2adc3f72aa13U,
  0x3ef05a193e8e38ffU, 0xbe070865be26179fU, 0xbf08c0433ed8432dU, 0x3f0279f73ec4ef94U,
  0xbe4e555cbef9921eU, 0x3ef8dabbbf919771U, 0xbdab87efbe5a3190U, 0xbf2b6a0e3f5c733fU,
  0xbec6d0a9bc521154U, 0xbe280eb1bd8e9b5dU, 0x3f51e1d5bedbd294U, 0xbdfc885c3ed299f8U,
  0xbe3f50ee3f0c92afU, 0x3c42aa24be2d715cU, 0xbf3414223e395daeU, 0x3dec5c0fbe869a39U,
  0xbda49777be8b8784U, 0x3dc2c1103e04df05U, 0xbee9bea3be4c493aU, 0xbf0edfcd3eb60f79U,
  0xbced71c9bf207717U, 0xbe162dfc3ea5314bU, 0x3e6c9efdbd77851fU, 0x3ee70a513f555729U,
  0xbe0d56563e84b58fU, 0xbd2685cabcfc2537U, 0xbee1f279bf3cecd0U, 0x3cfdb1123f632077U,
  0xbe78cfe7be6a1924U, 0x3d45cbc93f27986dU, 0x3ed0b1a93db41e77U, 0x3fd2ad613ebe5e92U,
  0x3f5a18dd3ee80444U, 0x3e18a1babe7e10d1U, 0x3f2046f0bdf7cffeU, 0x3f12b4f13f5e5818U,
  0x3e8af3423e1d0787U, 0x3e1b360bbe57b857U, 0x3f0298093d46a805U, 0x3f127245bf1884f9U,
  0xbe83f2b7be9cbf90U, 0x3e2541a0bef5f928U, 0x3d82ffeebe8b791dU, 0xbe92cdde3ed71bf0U,
  0xbec1a7f4be807c06U, 0xbea86d113c54b1fdU, 0x3f70a9cdbf18a8b3U, 0xbfa978c63ee6408cU,
  0x3d3ae5413ec0bf2eU, 0x3e898322bdc90c72U, 0xbdc9a15c3df37b4bU, 0x3cf8acd5bea28584U,
  0xbe193f5cbee86cebU, 0x3e9347a93ed4921fU, 0xbe47181ebdbe27bfU, 0xbc809cab3f532e3aU,
  0x3d66a549bf0c74d8U, 0xbe1d38723ed5b6e0U, 0x3e35260ebe73c111U, 0x3ee99a5b3f0bf277U,
  0xbdaae37a3e069b5dU, 0xbe1d92f53dbb3721U, 0xbecb14a0bece5b01U, 0x3c178f513f8495a3U,
  0xbe1d397d3d55aff8U, 0x3b6bca453e9011baU, 0x3ece231c3dbbbeb0U, 0x3effcfe73dee3a4cU,
  0x3f4dac0e3ea41740U, 0x3e70ac60bde4d109U, 0x3ec80499be434d28U, 0x3fcb1c593f491a25U,
  0x3f48319a3e6966a2U, 0x3e73c735be3c4fd6U, 0xbe4401673eff3f20U, 0x3ef646373da8ddd0U,
  0xbe17d7b6bf895f16U, 0x3ef61571bf019c11U, 0xbeb365033d1959f5U, 0xbf3e3ed03f3f9557U,
  0xbd81bd673e5e89fbU, 0x3bd82e123caaaf6eU, 0x3f1f43d3bf0e58b2U, 0xbe838c0c3e3b1c6dU,
  0x3ecc88c3bd805581U, 0xbf959c533e003bb3U, 0x3e21c632bedbeca6U, 0xbcc832483f4e4952U,
  0x3e801558be64285dU, 0xbe83b2e2be24a734U, 0xbe45ef0dbebc08a1U, 0x3e70154bbf4409e0U,
  0x3d38f3e6bdbd2ab7U, 0x3e886858bde1dca7U, 0xbe345e553db079a7U, 0x3fa4bceb3e7155f2U,
  0xbe088a5e3e5a6429U, 0xbefed3af3df47a2bU, 0xbf1f7e0dbe5fe91eU, 0x3e5c2669bd93f266U,
  0xbdaee03fbed99c7aU, 0x3e13fc683f3cba7eU, 0x3dc8d5df3ee31754U, 0xbf309e7dbf4c3519U,
  0x3dd40026bf774d87U, 0x3e0b71c13e84d4d7U, 0xbed245b13d89d10bU, 0xbf9b5934bee8a1c4U,
  0x3f44145dbf12ad8bU, 0x3f1cb8493c97e580U, 0x3e864aba3f167357U, 0x3f7744513e73c4c6U,
  0xbe6d0b183f34b393U, 0x3d578fe8be8542faU, 0x3e67bafbbf23c17bU, 0xbe0ecfe4beb698caU,
  0xbdb1c7083f0f5253U, 0x3e35a58ebdd70a3eU, 0x3e528a16bda8cfb6U, 0xbfc9c72f3eab02e4U,
  0x3ec49627bd232addU, 0xbf3e8201bda82cd7U, 0x3ef8b28ebd55d1c7U, 0xbea4cb2b3f264120U,
  0x3d98e0b6bd50dd79U, 0xbe68f6abbd9246c9U, 0x3ea5f366bea8eeedU, 0x3ce24909be82ffd4U,
  0xbeb9b6403eb018e6U, 0xbbca119abe3b1f21U, 0x3d01ac67bd2ec853U, 0x3f2b8172bde27809U,
  0x3decf33e3d8ee8fcU, 0xbedfac203e655538U, 0xbf8f3a853f39da27U, 0x3ea559b73a6bb8b1U,
  0x3c691ffcba817a81U, 0x3d67a88b3e9c57e0U, 0xbd1838d93f3f6e70U, 0xbd81c307be0dc0fcU,
  0x3b7a2f00becba820U, 0xbeb18d0abe16100fU, 0xbf838652be55ccf9U, 0xbf27c57fbd2308dfU,
  0x3f4a9bf9be48d54aU, 0x3e3b83213a3e0aa4U, 0x3f08e1db3e3a7e31U, 0x3f10eb633e529228U,
  0xbe9ab2983e817b40U, 0x3f024b82bebb1e02U, 0x3ed01638bee51e8aU, 0x3ecaae73bf221454U,
  0xbe0f9bf5bf68e81fU, 0x3ee5a8263e1a02e5U, 0x3e0868a5be5547a9U, 0xbf3986b9bdddbbc3U,
  0xbd2c87a83bf55e6aU, 0xbf8c5d6a3db40a4fU, 0xbe539f4abdf33a2cU, 0xbe4e1fc93ed372bfU,
  0x3ea10c883e80f063U, 0xbf07a862be9dbe20U, 0x3da9a9f4be770384U, 0x3ec7fc0ebf99e9b5U,
  0xbf2bf3b93f1690a0U, 0xbe25f588be3ade98U, 0x3c92e94c3ce309feU, 0x3ee870323e0a028cU,
  0x3e9976803e5f9236U, 0xbea42a60bc86f90dU, 0xbf8cddbc3eafabe6U, 0x3e851977beb9286eU,
  0xbdf02dc3bccf953fU, 0x3ed8ddf03e22a29bU, 0x3c9be5873ea67068U, 0x3f34f7293e3fb439U,
  0xbf3f7eb9bdd376f5U, 0xbe5189813e468497U, 0xbe9284ffbe950cf1U, 0xbfa0c9fb3dbf355eU,
  0x3f138e5cbebcd271U, 0x3dc725bf3e6dafb9U, 0x3e2fbd823e06d351U, 0x3f3e71efbea89c6eU,
  0xbe23a6073e13cf0aU, 0xbd3953d0bebad672U, 0x3f0f37f4beff7661U, 0x3f82b252bedb2624U,
  0xbf34f31fbeed087fU, 0x3ebbaf7fbe14d4beU, 0x3da52366beb30a95U, 0x3e06f155bf1307ecU,
  0x3df5b4afbe1e9d0aU, 0xbee3d907bcf0a1d5U, 0x3ec92c5abe8b7598U, 0xbe02c6723d96dd9eU,
  0x3e5674b23e558134U, 0xbe1ba5883d3740aeU, 0x3f632594bd4d1e5eU, 0x3d88bd2dbe256de4U,
  0xbdc6c6173e2a832aU, 0xbd3c6f803f0715f9U, 0xbde05fb53db3fbbfU, 0xbe383696be676223U,
  0x3df397b73bfe4e2eU, 0xbe0f7e4bbda98f74U, 0x3db8beff3eb870efU, 0x3d894931bf3af991U,
  0x3e83927bbe554967U, 0xbd690e38bd7a5244U, 0xbb68cee63e20a20aU, 0xbebc8e00bed40c1fU,
  0xbe7494aabf05f779U, 0x3e231e293e8d39f6U, 0xbe8335d3bdc45e73U, 0xbe905130bf4b2327U,
  0xbf1c37a5bdeff719U, 0xbea9e404bed60edaU, 0xbdc478f9be1987daU, 0xbe3273fe3dd9c09eU,
  0x3e3b4a9fbdbef1ceU, 0xbe9e9c593edc2eafU, 0xbdf39a8c3d00608eU, 0x3f19cbb03e460283U,
  0x3d790377be5a8341U, 0xbd3d8701bd45536aU, 0x3d8fb25f3ed77f3bU, 0xbf09b7583f0c9aaaU,
  0x3d761d16be7213a2U, 0xbdf766c0bc654cb8U, 0x3e8f32353bf2559dU, 0xbcc633103d905493U,
  0x3bca3fb93f146d9fU, 0xbd0064623de6644fU, 0x3e9b819fbc1c3a6aU, 0x3e8a6652bf0fba4dU,
  0xbe625b4b3df7a9f7U, 0xbde18c99bd5bda20U, 0xbe5742293d4c85cfU, 0x3e9a36c5bf020caaU,
  0x3e889e1fbe946a19U, 0xbd073c93bdda5f79U, 0x3e5924fb3ed89292U, 0x3d4732b3bf083c39U,
  0x3e7f09dcbe221f8dU, 0xbc417c72beae8774U, 0x3ea7c273bdc7173aU, 0xbf205c0abeb15d81U,
  0xbee90931be95df05U, 0xbe0f45853f5dace0U, 0xbeae39003d1de3beU, 0x3e665065bf096090U,
  0x3c5884ddbe06db67U, 0xbd808a94bdd40318U, 0xbedf28b3bea0a916U, 0xbe6a8f6c3f22ebf5U,
  0x3df079e7bf1fc934U, 0x3d9c28943d774fccU, 0x3d05b0a83d312416U, 0x3e293f573e13ab28U,
  0x3c21b2febee3f921U, 0x3dac0c68be644e85U, 0xbd276a073d4a967cU, 0x3f549aa0bdb249feU,
  0x3e00d853be22c84cU, 0xbe5e0c84bc988011U, 0x3ba6d50dbde015dbU, 0xbe067884bc8d2e79U,
  0x3d95516f3f40c7d0U, 0xbdbfc881bec167b3U, 0x3ebd0b2a3db54192U, 0x3eb60581bf016fc6U,
  0xbeb5d6683e549f48U, 0xbdf1deaebdce6c4dU, 0xbe660b6b3e24d110U, 0xbdcff8a0befae9f9U,
  0x3e0931fcbd797627U, 0x3ce22623bdebd055U, 0xbd4d70c5bed2b75dU, 0xba943e2bbf1d6c6fU,
  0x3e1da261bc0e67dfU, 0x3dd7fb28be8a7bb1U, 0x3e298591bd0846efU, 0x3e450a90be295472U,
  0xbeddb8bdbea1967bU, 0xbe43262f3df19c1aU, 0xbd0165c13e662c7aU, 0x3f27833dbf043eb3U,
  0xbec4ddb8be831281U, 0xbe17bae3be2a3bceU, 0x3e80db05bda80104U, 0xbd90ee6cbe98035aU,
  0x3e6a1d5fbe64d552U, 0xbebd63643e9986bbU, 0x3d1109d9be204b4aU, 0x3f0cf5393dc839a3U,
  0xbd994b76be8afc7cU, 0x3e825680be8e29e0U, 0x3e89b5b53e682ca2U, 0x3dacaa823e3ea85fU,
  0x3e5bf32abb9f87f5U, 0x3dae5b233d5bc523U, 0x3ea5bebebe68a0acU, 0xbe4f9fedbdf9af5dU,
  0x3dde2f9e3e26798bU, 0xbea04ce73d85d68aU, 0xbe0686b73dc2f45bU, 0x3f200d4fbd3f949dU,
  0x3db013d73e8888a8U, 0x3da5b5213d4f313aU, 0xbe79c0153e0635c0U, 0xbf0e188bbbd27232U,
  0x3ddac19fbe925cbdU, 0x3de7c5f73e0c0e12U, 0x3eb3c7ea3f000989U, 0x3d3c4629bf5dd6efU,
  0x3e3008febe5481ecU, 0xbe48240abe228513U, 0x3e813eb3be032809U, 0xbf6c91223d845119U,
  0xbd8cff09be7900f0U, 0xbc96ada9bd35bbb8U, 0xbed327063e092e9cU, 0x3dcc0d82bf043203U,
  0xbeb5726d3c8b5f91U, 0xbc7903bebe133b26U, 0x3f17a737bef33b6fU, 0x3d98f124bf1c52adU,
  0x3e852c2fbe5aa6afU, 0xbe5b8fad3ed7ce34U, 0x3ee401b63dc052e3U, 0x3f6e161bbe536f9aU,
  0x3e54aeb2bf44d4caU, 0xbe409af13de24321U, 0x3de9fcc73e1903dbU, 0x3ec5b05cbdc3c28eU,
  0x3dae786dbe4c08d1U, 0x3e55e4543db7cffbU, 0x3ea04c6bbdf5ede7U, 0xbcb34611bec068baU,
  0x3d877100bdc5b7eaU, 0x3dc832e0bd9f8de6U, 0xbd97d23e3b34a3a1U, 0x3e3915b5be95628eU,
  0xbe1178a93e3cf0abU, 0xbd22c2bdbe406e0fU, 0xbeabdc723dd7412bU, 0xbde6009cbe62847dU,
  0x3e2833b9bc38c70cU, 0x3da7375b3e43f32bU, 0x3e9d37b13e2554f1U, 0xbdfc2098bf31cd8cU,
  0x3e0b32d93e651249U, 0x3da32e90bea01c15U, 0x3ee6ced0be66b76cU, 0xbfa8fc133e37cc84U,
  0xbea375333ebb87cbU, 0xbc0ea233bc4c9404U, 0xbea444433e296573U, 0x3ed2237cbebd712eU,
  0xbed36700bd71c07eU, 0xbeae178abe0a3792U, 0xbec576babe19a3f8U, 0xbebfc0353e204df6U,
  0x3e236da5be09abc3U, 0xbe1cdd923f237b5bU, 0x3ef0110dbd32024bU, 0x3e223a853ef95e13U,
  0x3e9878953e32509aU, 0x3c9a2360bd97badbU, 0xbed132923d4514d7U, 0x3f9bf5bf3cd85cdcU,
  0xbe23c987bdef5f57U, 0x3d15bb443de80539U, 0xbdaedc78be26cc1cU, 0x3b263bc7be657a83U,
  0x3e276a8d3da454e4U, 0xbd4e7d443cf318bdU, 0x3e21f3b63dc5bbe3U, 0x3d50095f3e856edaU,
  0x3dd85350bd9bd629U, 0xbd8d2ce9be0a0bb7U, 0xbe65b3f43d818c01U, 0x3ca1eb8ebf034f03U,
  0x3d5d31e2ba3f8259U, 0xbd114200bd25c646U, 0x3d3e00df3f005c0fU, 0xbdeaac64beb8c4b1U,
  0x3e59a80a3e79c4e1U, 0xbe858c69be08a865U, 0x3f2077febe7f12ccU, 0xbf28daf3beef46d7U,
  0xbe0c456f3e5b2aebU, 0x3c5581563aac04a6U, 0xbe2e4ef83e212256U, 0xbf510f6bbe989c40U,
  0xbeba2e4bbe90a1cfU, 0xbd2d7662bbf64e0eU, 0xbe31edccbea02057U, 0xbe6ed3c43e280c39U,
  0x3e3eb9d7bf50d0c9U, 0xbea4ddb93f205631U, 0x3f762aa0bde31ccbU, 0x3f0734913d6532dbU,
  0x3dc2f074bd2fc1bcU, 0xbe53c14cbe1ae1bbU, 0x3db238733ed25d5fU, 0x3f02f13e3eb938daU,
  0xbe68f9af3d3f383bU, 0x3f552844bb2f3d42U, 0xbe67273c3d2ebb77U, 0x3da028d3bf348443U,
  0xbdee64af3eb29a08U, 0x3e49d9a03dd6c29bU, 0x3d83c3173e722ed3U, 0x3e509e413f12a23dU,
  0x3db5d75c3ed03441U, 0xbde29ace3e17746eU, 0x3d9f7b73bde86165U, 0xbf8d32f6bef4dadaU,
  0x3e3dd093be569b15U, 0x3eb51dd43dca8c88U, 0x3f3fb2073f3e7b81U, 0xbe30fc4ebedecc8fU,
  0x3e0b6624bec26bbaU, 0xbe43dfb9bf3169daU, 0x3e13dfc1be9d5936U, 0xbd11ed163e9b5797U,
  0xbe2b73e83f5f6736U, 0x3c91226c3e423964U, 0x3ec0cf713d9b3e8fU, 0x3f763b923e609a8bU,
  0xbf0a838a3e108911U, 0xbe7e6e3dbe1d99eeU, 0xbed86790becae270U, 0xbee1f465bf16a146U,
  0x3e880225be2e063bU, 0xbe93f17d3f25eaecU, 0x3a8bb3d53e92fd35U, 0x3ef63cd8be2b9a52U,
  0x3e456e073e078a8fU, 0x3dc4fc9fbd9f30c0U, 0xbe74575f3cfdc3eaU, 0x3f73c62abe671f6cU,
  0xbe34088a3da1f974U, 0x3f30fcfebe0c1157U, 0xbe04ab88bdda3728U, 0x3e483bcdbf1b5172U,
  0x3c9faa79bee36b6aU, 0x3ce6efa4bcbaa3d1U, 0xbeb0223b3e516de6U, 0x3e734f113e251fabU,
  0x3e9c482fbdbcaca4U, 0x3c49defd3d81a3dbU, 0xbe2e78b73d3b9f03U, 0xbed5305e3eb5d34dU,
  0x3dc72fb8baa78332U, 0x3e887abb3eb0e0ccU, 0x3f75e1e7be98493eU, 0xbe67b1d3be2ea9adU,
  0x3db91adbbe29a0f6U, 0xbd81030dbe87cacfU, 0x3e7f1045bf1aa8a0U, 0xbf773fffbc4c82b3U,
  0xbe97c3a93f1c12b4U, 0xbe437a65bc2113f9U, 0x3f23b56b3dd9b232U, 0x3f9d3666bc3d054aU,
  0xbf62c4d13e942fb9U, 0xbee38e70be4a303bU, 0xbf53ae39be957412U, 0xbf2be496be2b330bU,
  0x3ebcf3fb3e0b6526U, 0xbe1fc0163e8f4f66U, 0xbeef3f333e8fa915U, 0x3d35f7453d5f84cbU,
  0x3e49ae123e3c04ceU, 0xbb8e1dd1bed12ce8U, 0xbe20437b3e7429a8U, 0x3f93a8cf3f019369U,
  0x3d9f49cfbd20490dU, 0x3f41c4efbe24afbdU, 0x3e8cf5e1bd85cf2fU, 0x3df7f72cbe1db072U,
  0xbdc7dfa8bde6507fU, 0x3ed821a43e8c9ea8U, 0xbde4f1cd3de2e296U, 0x3d0b37253f0f8c4eU,
  0x3ec47038be931261U, 0x3e03a298be5838bdU, 0xbe4b518c3da395dfU, 0xbf028edebf323324U,
  0xbdd3d38abe68a6beU, 0x3ea3a4cd3e26c217U, 0x3f56d75c3de71e16U, 0xbe6144ff3e5a0d0dU,
  0x3e50c48abd55cf20U, 0xbe9ef519be69372fU, 0xbdae50babea169fcU, 0xbf8a2f66be0bdb72U,
  0x3e58a8193f022a6cU, 0xbd1cf1f93c901692U, 0x3e89355f3eb5404dU, 0x3f539758beef3119U,
  0xbf3124f83e96350aU, 0xbe1ee17a3d90659fU, 0x3e7ede97bf1c37adU, 0xbf3686fa3e3c8b7fU,
  0x3e672ec23e8e66d3U, 0x3cb083703f03a3ffU, 0xbe347dbc3e2dbee9U, 0x3db75cc23f3ae05eU,
  0x3f038fddbe83faa7U, 0x3db73bbebc20f9e2U, 0x3e6b5e5c3ed44494U, 0x3db2adec3e94a261U,
  0xbd410e2bbed7e61bU, 0x3e948101bd3c8069U, 0x3efd173b3d42e84cU, 0xbdc79afcbdf53d52U,
  0xbd30f2eb3e92f9c5U, 0x3e0badc53d646199U, 0xbd6c578d3e7c012aU, 0x3e1c8f37be8f2260U,
  0x3ea1c69a3f7887b4U, 0xbc34251f3dc6dccaU, 0xbe4505763e2de0c9U, 0xbf2a9dd2bf7f69e8U,
  0x3d3ab30dbf179c6bU, 0x3ef9fdd3be655f24U, 0x3f8528cc3f69a01fU, 0xbe2ba2c2bfcbdf56U,
  0x3dd25114bedd85abU, 0xbd103c64bf2e8d84U, 0xbea0037cbdcc7813U, 0xbf97edc43e3cbddcU,
  0xbeffe6c1bf30823eU, 0xbd9f18503b56c571U, 0xbc64a76dbce96f05U, 0xbedbb8bcbf9da246U,
  0xbf8f01a1bd343e01U, 0xbe8cbc133ecd38bdU, 0x3e3becb7bebaca2dU, 0xbf93ae2fbf932f52U,
  0x3e2259023dc3dac8U, 0xbf2f73ff3fdfa4f5U, 0x3e8b70cb3efa5593U, 0x3f4853cdc00a421cU,
  0x3f0fd9f93ead262fU, 0x3dd1e3cfbd4d4196U, 0xbfcc870d3ef962cfU, 0x3f480743bfa4a2e5U,
  0x3d2154f2bf2795a5U, 0x3eb3cb873dea9213U, 0x3f3a611abe663a97U, 0xbc25ebfcbece2285U,
  0xbc0530c3bea7f9adU, 0xbe3f8088bd81f35fU, 0x3d8d03f73ec43061U, 0x3efb8718bf5c0752U,
  0x3db6b4043f36a94cU, 0xbdaaae61bd2edfd9U, 0xbec777753e240b38U, 0xbf3634a0bf6d6e26U,
  0x3bcb822bbe854df3U, 0x3ec17307bd68cbf0U, 0x3f90b68d3f2973c7U, 0xbdc201c3bfc29bfeU,
  0x3e538d083e317f8cU, 0xbd3ae3b4bf64962bU, 0xbe4d8fedbeb56e5dU, 0xc012bb3dbef028a2U,
  0xbf7b2305bf5d7b8dU, 0xbd223fed3e664838U, 0x3c9c37e33e19c43fU, 0xbef0b7d4bf219fd5U,
  0xbf96fde53c6654b9U, 0xbf06d4f83eb4c9b1U, 0xbf8dc796be621e47U, 0xbf5b34b43f501868U,
  0x3e899b173e2bf2d2U, 0xbf27f21b3fa1d4d8U, 0x3e5185093efa75a2U, 0x3e288e4f3e237dcaU,
  0x3f19affd3f4a4273U, 0x3c92e09e3def7f4bU, 0xbf899e583f2ff992U, 0x4005c9ebbd044468U,
  0xbd7b9637bed2bb4dU, 0x3eaa677d3c5c7d35U, 0x3e8fc57fbd425458U, 0xbc058d1f3e276104U,
  0x3c0fc059bc92650aU, 0x3c5d5fc2be6ad638U, 0xbebcce6c3e5341feU, 0xbe2204ddbf51962dU,
  0x3e77aaae3f229f33U, 0xba8ab37bbe7c3133U, 0xbec6e9e23e8cfcd9U, 0xbf56a002bf874f81U,
  0x3d59be18bea77400U, 0x3effc1c1bdfae466U, 0x3f76bc713eea1c7bU, 0xbe2d03ebbfa1606aU,
  0x3e23ae5abe6ae1d2U, 0xbe86b712bec68e3aU, 0xbd2bc504be7e2140U, 0xbfd1c057bea425d1U,
  0xbf03ed48bf9eddf2U, 0xbd3a97823d21faafU, 0xbf10d7403eadaf46U, 0xbfb30df1bf9ae3b1U,
  0xbf9eec263db0038aU, 0xbf2d189b3ea598afU, 0xbe7896d1bf257ffeU, 0xbf86fe4f3e5b520bU,
  0x3e2e88a13f3c5f46U, 0xbed8445d3f1edab4U, 0x3d00c2243ebd2255U, 0x3f1f6003bf87909aU,
  0x3f0c02623ec32addU, 0x3da8fbb6bd6f9551U, 0xbf151c673f597c77U, 0x3e953448be7fb3d4U,
  0xbd1bf0473d11b83bU, 0x3e83280fbb544be3U, 0xbe1ddb6a3e3623beU, 0x3e148f07beae4930U,
  0xbc7f47433d5591bdU, 0x3e802628beafddfcU, 0x3bae756e3dc49074U, 0xbd0004153f5218d6U,
  0xbd8163cd3eba3660U, 0x3dd88b9c3e4e0331U, 0xbe1377f9be267e91U, 0xbed284ea3d938662U,
  0xbb1b0a44bd7bc4f5U, 0x3e96798bbd0dcc22U, 0x3dbcb8dfbe502128U, 0xbddd7feebe9b130bU,
  0x3d5dd394bd99f913U, 0xbd806a19bec7e46dU, 0xbb9a4470be1aee04U, 0x3f0cbded3e882e97U,
  0xbce7ab023ebf8cdbU, 0xbe757764ba487d49U, 0x3da47042bde3da47U, 0x3f3a2e6d3da3ae26U,
  0xbdf7f1423e90117fU, 0xbdcba3fbbe816db7U, 0xbdbdfd61bd7132f8U, 0xbccd8ff9bfb47b83U,
  0x3e35cdf23f268c54U, 0x3da0d564be95def8U, 0xbf0d3d9c3d467bf9U, 0xbe97cf773db1fde6U,
  0xbd35fbd33e9130dcU, 0xbd82f0683ea37ea3U, 0x3e547ff7bd4cd52aU, 0x3e32682b3e9f8d78U,
  0xbde4e8be3dca4082U, 0x3eff9211bd061ca5U, 0xbea09b33bd1cff09U, 0x3dea47f5bec6af30U,
  0x3d9cbfa1bd09d8acU, 0x3ccf29cfbde42035U, 0x3d8849b13cb448e7U, 0x3d9ae28e3e7f5c48U,
  0x3d6ad74fbd3f3bebU, 0xbd2cb26ebe330475U, 0x3cbc9f6bbd77cde2U, 0x3bc714f43f01e83cU,
  0xbbe804dbbdbe8c0dU, 0x3eb5c0583d97e0deU, 0x3f1ca0f2bec49de6U, 0xbdf220be3e553de4U,
  0xbc6b3dbbbe23fb46U, 0xbe28b8b4be539747U, 0xbe6383adbefa3087U, 0x3e2a53a03d60ef5cU,
  0x3e2d5d553eed6df5U, 0xbc4349bfbe5f4844U, 0x3f234d4f3e3dfd4dU, 0x3d7c63bd3f36a12eU,
  0xbe5afc603e262e5cU, 0x3cf87ad3bd09dd41U, 0xbef82f103d58203dU, 0x3d690e85bf24d275U,
  0x3dc9c1c73d40ab10U, 0x3e4ff587bec58d8eU, 0xbde207f8bd6de99dU, 0xbeaf8f79be111a71U,
  0xbe2109c8bd25b5b8U, 0xbd2cd2f03e2021a8U, 0x3e146b45be45cd5bU, 0x3e4de1ad3c6b85d6U,
  0x3d95f789bbde9278U, 0x3f1a9904bcbbba7fU, 0xba0bfc5cbd56b79cU, 0x3e2aea63bcc4b46cU,
  0x3dbe3aba3dd4df64U, 0x3df074f73e73e37fU, 0xbebd07ab3e100b3cU, 0xbd9226053edeefb4U,
  0x3e4e34e93cfd2797U, 0x3e454482bdb3cf6eU, 0xbba25ccebb3965abU, 0xbe507b9abd3619dbU,
  0xbd386c4cbd630bc2U, 0x3e90d532bd1d61f3U, 0x3ec4a0e73ddb6c51U, 0xbe15fa673ec59d24U,
  0x3dc35271bdb4965cU, 0xbdf03961be4acf1fU, 0x3e4e9fa4bc8cc92aU, 0xbeba885d3e011d5dU,
  0xbca283883cc1f83eU, 0xbe0e04d0bdd79ec7U, 0x3e47cce53e32c509U, 0xbd77227e3dfa77faU,
  0xbe2e0eb33e8ab41eU, 0x3e0d905cbe2f856bU, 0xbea3200d3dc66feeU, 0xbe81454b3ec0b03dU,
  0x3e11adeb3ea1d2fcU, 0x3d8c76d03e9f6468U, 0xbf19d5a83dec44d9U, 0xbf42cdaabeccd68fU,
  0x3d527989beaa539cU, 0xbeb4c3073e687233U, 0xbe20f9fa3e2a6255U, 0x3eda61d43ea54263U,
  0x3ba8a88dbeefabb2U, 0x3ea510323e909d47U, 0x3f07f8783b748614U, 0xbd5eb369be8b0d3dU,
  0x3c228c0b3d70f52dU, 0x3d90341ebd3c32a9U, 0x3d464cfd3e888818U, 0x3dddb42ebe5a387bU,
  0x3e55c5c33f5affe2U, 0x3ddcdb9f3e852644U, 0xbe93c7703da5af50U, 0xbf05c944bf8c8850U,
  0x3d87bc07bf1a5cafU, 0x3ed738b7be60c95fU, 0x3f7921173f6810fbU, 0xbe049c82bfb9f6cbU,
  0x3e2bf1febc8ea8c1U, 0xbda3a138bf017fceU, 0xbed6de26bda9dd7eU, 0xbf95154c3e4ff8e9U,
  0xbf1bae54bee76084U, 0xbe67adbc3e0b962aU, 0xbe951672bcf7c889U, 0xbe0fd4dcbfa1ed14U,
  0xbf904b99be104cf3U, 0xbec2f4a33e2567c6U, 0xbde6ebaabef1ff08U, 0xbf910bf7bf4700fbU,
  0x3e857ab43d9ea18aU, 0xbf3440633fbd6cceU, 0x3db4cc983f00f847U, 0x3f5ce45cbfa8c1e0U,
  0x3eebe1b43e42dd9fU, 0x3e06788e3e606ef3U, 0xbf9e285f3ed9d5c7U, 0x3f6cda83bf8fe98cU,
  0x3d758fe4bf20e166U, 0x3e78f2943d9d53b3U, 0x3f10aa69be4992eaU, 0xbd13b53dbe80cdddU,
  0x3da420bcbe916f58U, 0xbde3a49cbc0482d4U, 0x3c16f02b3eaf45ceU, 0x3f094bbfbf30704aU,
  0x3db75db03f45304aU, 0x3e0c1fc1be481b6fU, 0xbeb740ba3df52cceU, 0xbefdcf9cbf7e4afbU,
  0x3dbf83e4bea716c7U, 0x3e8d75b5be3aa041U, 0x3f8466b43f14600bU, 0xbdd7f0a4bfa63f77U,
  0x3e6d17b5be9bee59U, 0xbcc8ce53bf5ba986U, 0xbda2ecc4becc20d4U, 0xc02a76e3bea82905U,
  0xbf8d61a3bf307231U, 0xbddd929a3e759264U, 0xbe7b20483e35acdfU, 0xbf07f73fbf6b1ba5U,
  0xbfb5e8be3ba84d91U, 0xbe8dc9573d86581bU, 0xbf83c0a7be3e3934U, 0xbf4dd6363f171ff9U,
  0x3ea250b53f0b6c0dU, 0xbf1432cb3f9623b4U, 0x3f0999873f10c9c5U, 0xbdd15aaf3e5635e7U,
  0x3f31cfd13f53f8deU, 0x3b26432a3d734e95U, 0xbf319fee3f180f3eU, 0x3fe919703e4c1fd0U,
  0xbd0f8e5dbea156d9U, 0x3e83ba3d3d434daaU, 0x3c96085dbe1bc80cU, 0xbdc3535f3dc6c828U,
  0x3d88cb6a3e451776U, 0xbd4e2fd03b96e432U, 0x3e2f26163e7fc9fbU, 0x3c9865bcbefa1fb7U,
  0x3e7057273e972a32U, 0xbe2be581be8464c1U, 0xbeb948cd3e93f727U, 0xbf3212ffbf853adeU,
  0x3db28fc3be1ecfa4U, 0x3ea86fc1bd535f2cU, 0x3f42526c3ec1f0aeU, 0xbe4c5695bfb7fdfeU,
  0x3e4c4c13bf11dd1eU, 0xbea07f01befcf559U, 0xbeb61837be881955U, 0xbfb9798ebe96db6eU,
  0xbf506455bf98e199U, 0xbe9234163df9ba59U, 0xbe8c34723ec87992U, 0xbf8db440bfaf67e7U,
  0xbf9c1d613dae5d39U, 0xbf27ebdd3e823280U, 0x3e1d8c6dbf269e0eU, 0xbf66ed733f0927aaU,
  0x3e4accdd3ea631a5U, 0xbedd4d283f3019a8U, 0x3cce6a173e97687fU, 0x3f1c605dbf9c2570U,
  0x3ec9227e3eeb13ecU, 0x3cf99fbabe499335U, 0xbf3c989c3f36b616U, 0x3f13f021beaa8591U,
  0x3ef3b1433e8de1dfU, 0x3dfd345f3d90e5e8U, 0xbdbc76f53d0e700fU, 0xbcc8e541bf000f5bU,
  0x3e719afa3f05a6e7U, 0xbeafbfc73e4c794bU, 0x3df8afb8be536a4eU, 0x3e1aaa603f329c4bU,
  0x3e5d94943e110705U, 0x3d6fc4ae3c3cea47U, 0x3e549059be6abc9aU, 0xbed482413e6320deU,
  0x3caf36a73e6af995U, 0x3e77ddee3e71708dU, 0xbe838a53be9f12b7U, 0x3dc4b2123e457cd8U,
  0x3e9a4e1c3de8810eU, 0xbe2214d1be2f5c15U, 0x3e70d5593d295926U, 0x3f81ad453eb88787U,
  0xbe24d9aa3f78040fU, 0xbdf8dc52bd4b0415U, 0x3f1091473e14ed25U, 0x3d36212f3f92dc6bU,
  0x3d90671d3e6ff698U, 0xbe2579dcbd8b5efeU, 0xbfa8ef9e3eb11d15U, 0x3eb0f11cbf8e8bffU,
  0x3e7187c3bf611a85U, 0x3e08a16abf0cf95bU, 0x3dda8c24bc52ccc1U, 0xbe96e8843da694c6U,
  0xbde7e1ee3eac3a3bU, 0xbe981ae63e31f6c3U, 0xbe472cfb3e1642c0U, 0x3f3a84163e4896d4U,
  0xbda08d273e53e167U, 0x3e1e96efbaebae6dU, 0x3e22a4693d6d079aU, 0xbd6ce2f2bd6f1162U,
  0x3e26c501bec0043eU, 0x3e56e699bd2affc3U, 0xbe35123d3e3cc721U, 0xbeb738be3ef402f3U,
  0x3ec820463d9ad132U, 0xbe3374f93d7e38ffU, 0xbdec5fde3c838fe3U, 0x3e470db43ebaeea0U,
  0x3e65716d3e8a9e8fU, 0x3e5f79cd3efe8923U, 0x3ea9be17be708df7U, 0x3e3c22703e961585U,
  0x3e63c977be1aabdbU, 0x3e44b019bee018d0U, 0x3e0f3017be0d9237U, 0x3e849a643ecd8551U,
  0x3e16acae3f2b0da3U, 0xbe88623c3e7b9b0dU, 0x3e7324d2bd858468U, 0x3f00b9963ee7fb90U,
  0xbdef1dcf3ee1588dU, 0xbe0c9e0fbeb8d3c3U, 0xbf411a133e876bfbU, 0xbe9a62b2be9c07adU,
  0x3dabaac53e1d1ccbU, 0xbe182b61beb2d2caU, 0x3cd973043e5b4537U, 0xbe18a52c3f23523aU,
  0x3e91c5ec3e7899c8U, 0xbe1240d8bedaf7ffU, 0xbd35346b3d96eadeU, 0xbe089b1d3dfce90aU,
  0x3e1020963e553182U, 0x3eb60e8ebe1b469aU, 0x3f16aec13e0347d9U, 0xbc5e61dcbf5c5640U,
  0x3e21adcbbe410ea2U, 0xbeaf13c33ecc19d8U, 0x3dbdbccbbca49c54U, 0xbdb2278c3f32f68eU,
  0x3d3075b23d61469eU, 0xbdd54ea83de3fb84U, 0x3ea44e513b973431U, 0xbe0413f3be5945caU,
  0x3dbde2a6bad055f4U, 0x3dd60f8f3ea3fdbdU, 0xbe06841fbd010d35U, 0x3e78f9053e8fc152U,
  0x3e8259e5be9b2fd3U, 0xbe3442dbbe87ab8fU, 0xbcd910fabeffa3d0U, 0xbe1dc0a6be09f8e4U,
  0xbec40b6ebd4af151U, 0xbed21065be038bedU, 0x3ee54506bd1eb425U, 0x3f0ab14a3e03463aU,
  0xbd2449f93e4778e3U, 0xbcd5bc26be821363U, 0xbd6ffba6be19254dU, 0x3dac69e83e1009e0U,
  0x3ea86f29bec39634U, 0xbcec7eb83e79abdaU, 0x3e7dc9bfbd9b87e6U, 0xbf317c873f25c33dU,
  0xbe79e1edbe20ae5eU, 0x3bebb31dbd96423bU, 0x3e79bca43ee13e2aU, 0x3eea819b3f13998cU,
  0x3e0920ecbd2a618dU, 0xbed075ccbd231739U, 0x3c95b2cfbe03838aU, 0xbe151c3e3e5d7092U,
  0x3dfa09953d83d6ecU, 0xbe9300053db99f13U, 0x3da08d15bd6839daU, 0x3e4d2937bf12e729U,
  0xbe04e5f13e3434e1U, 0xbd9416efbe1a8d42U, 0xbe7055753e95b4c6U, 0x3d0e4273bbe3cff6U,
  0x3d5e7ad0bdd29923U, 0xbe00d4f4be355defU, 0x3cdd449d3eb66dbaU, 0x3d0cc644be8eb166U,
  0x3e70f2523f1854e1U, 0xbc427baf3c9f7c8aU, 0xbc3f7f943d24bd0eU, 0xbf75f31abe2e107eU,
  0xbefe0bb7bf17a3d7U, 0xbd3a72b83e8f3c06U, 0xbd8de16d3e279d07U, 0xbea52a9bbea3b45fU,
  0xbe6f6dc0be54cde7U, 0xbd882b2cbdd762a7U, 0xbed04d96be9fc5d6U, 0xbdd50f353e5413cdU,
  0x3dd5cddd3edb533cU, 0xbcb88dbc3f4d28bbU, 0xbdac21483d37f5e4U, 0x3f82783c3d96c88aU,
  0xbdda1799bdf7e3b3U, 0x3c937f583d8e17a7U, 0xbe9c2b643e1ff77dU, 0x3c9804cfbcbb8eb0U,
  0x3e30fe0ebe41bc15U, 0xbe9667083d17f349U, 0x3ea80188bd65ddabU, 0xbe79426abbe3fc06U,
  0x3d6a1e013e9ae3dbU, 0x3d353089bda26c83U, 0xbd1201453d8fcf22U, 0x3d807cb0be86d524U,
  0xbe846a673e2dc4beU, 0x3d78175ebe1d1786U, 0xbeb13e023e58810dU, 0x3e33de41be241fbcU,
  0x3e03c836bde41605U, 0xbe08fba03c3212d3U, 0xbea9a650bdba8733U, 0x3dcc047cbec9efc1U,
  0x3e71329abe7e5576U, 0xbd4b5f34be9d74b8U, 0xbe2b8dfa3d70d771U, 0xbf1d3233be1832caU,
  0xbedf4630bbd60ea3U, 0xbd07adfebd56abf7U, 0xbec71efcbcb21182U, 0x3ee74bc0bf01b82cU,
  0x3e66830fbdfc6e83U, 0x3e566f9d3e4685f6U, 0x3e7126c8be043f16U, 0xbdaa24f93f49f583U,
  0x3e06805a3ec5bd35U, 0xbe2718df3f36b143U, 0xbd2524d8bd8b8d40U, 0x3eb411983f0cf7ecU,
  0xbc1aeacdbf0a11b0U, 0xbdc2c01dbdcd1b09U, 0xbed9e3793eb08947U, 0xbebf47ae3e311d5fU,
  0x3e61644abdfe39bdU, 0xbebc812bbd743f17U, 0xbe3dfc79be8695f3U, 0xbdba4cee3e8ed54aU,
  0x3df85d27bde092daU, 0xbe410a8abf2438d4U, 0xbe1160b3bdc7c75eU, 0x3e32bd52bf164aebU,
  0xbe51e1823f2c5160U, 0xbb01a7e53c23070dU, 0xbd98db5b3e7e65ecU, 0xbe4a94f5bd66993eU,
  0x3e1e4539bd8d6c8fU, 0xbd9ca98b3c2bc051U, 0xbe45d4d83f2dea43U, 0x3e2158c9bef5a1d1U,
  0x3df3f5fd3ed71ef3U, 0x3d8d706d3dbff732U, 0x3d51f619bd97456cU, 0xbe00fb653c622adbU,
  0xbf04f22bbf2352c4U, 0xbdd077613dd20cb4U, 0xbd61fe00bdb7912eU, 0xbf2ff263bee07938U,
  0xbf082219be385876U, 0xbe88c8b63da9d152U, 0x3f10bc31bed36a11U, 0xbe9f0cb6bd894196U,
  0x3d48b3043f1cf460U, 0xbdd6b71e3e6d63acU, 0xbe35c0babd9c0b35U, 0x3fa60b563d4169d0U,
  0x3d1fd60bbdff5540U, 0x3d9aa0febe501c83U, 0xbe8e66ed3ea78937U, 0xbe4c9004be23cff5U,
  0xbd2d91913ca1cce2U, 0x3e26bed5be46b36aU, 0x3b6d5bf13b93881dU, 0x3dbd4ed9be5e4547U,
  0x3d1be9ec3f0e1a3dU, 0x3cd3b9e53ebf3d80U, 0xbe3afb13be3ca83aU, 0xbd5e1c943e989102U,
  0x3dcfcac9be09de2cU, 0xbdfbe93fbf26d6c9U, 0xbbb60177be937fa5U, 0x3ea6d6523d90e006U,
  0x3de7cc8d3dc68f2eU, 0xbde954a23da605f7U, 0xbe34cffb3e04f926U, 0x3dbafa53be9dfe2fU,
  0x3d8093cabe8fe410U, 0xbd3e6857be001482U, 0xbec83cea3d71ca07U, 0xbeeafeaebca84835U,
  0x3dac176c3e35bd7fU, 0xbe3342a5be87375aU, 0xbe9aec323d3c1686U, 0x3d926e14be235935U,
  0x3cdc8ddc3a24a903U, 0xbe2aecd63e7772adU, 0x3f7b64593d945b1dU, 0xbd0a9cb5be22c1b1U,
  0xbdc86a63be91230dU, 0x3e5ea0e33e9c3bd9U, 0xbe3a1c9f3e36b954U, 0x3eaf59d8bdb0a976U,
  0xbc449c473ea57a28U, 0x3edd9fbabe9659a1U, 0xbe78ba303dcc92ebU, 0xbea6689cbf4dff09U,
  0xbd0a6880be54b82bU, 0xbca24b633d5ae4fcU, 0x3f03ef313e915825U, 0x3e1286e93dfdafe6U,
  0xba79523bbe99a5c6U, 0x3be1fedf3d90871bU, 0x3e8421cfbd9e0412U, 0x3c589b43be907cf9U,
  0xbce4bfdbbd8e36a3U, 0x3da075d4bef76f01U, 0xbcd6f85dbc7c3706U, 0xbd8bf7863d7af83fU,
  0x3bfd54c03cead867U, 0xbdeda2bc3e00f2cfU, 0x3e1357c6be6a2b18U, 0x3d26dc89be548698U,
  0xbc159653be700aabU, 0x3e89aec7be3c0b17U, 0xbed34be03e28449aU, 0xbdfb0901be0f3aceU,
  0xbe55a799bd881b08U, 0xba09714ebea4cdcaU, 0xbe9949323dea3d84U, 0x3eada02abe33c0b8U,
  0xbdeb3ada3dfa3d88U, 0xbf042df23e6036f4U, 0xbe7ae56a3dcfc232U, 0xbe8907adbe9eab5bU,
  0xbda90fe33e77376cU, 0xbebc911c3d75c13eU, 0xbe8b85c53c9151c6U, 0xbe511933bea0fec9U,
  0x3e1b8e333f054eabU, 0xbe4b647f3de9c8dbU, 0xbd6145f13c90814dU, 0x3e294bf1bd796ac9U,
  0x3ea821fabd051e22U, 0xbe343333bc1cc7f1U, 0x3e799a6d3d8c7dd3U, 0xbd4226113cb34cd3U,
  0xbd6dbf7fbee8f267U, 0xbd3cc3cfbd152207U, 0xbe1f13e0bda97641U, 0xbf0fa3ecbedf1ecaU,
  0x3df11ea53e56262eU, 0xbd835e38bf1403afU, 0x3c85b63e3e0e3ca6U, 0xbe7e04323e61ea59U,
  0x3deceea7bc8ef471U, 0xbd4326553e3357ccU, 0x3b94d60e3d824d0eU, 0xbc6b10a63d69c197U,
  0xbde9b387bd98d573U, 0xbcb3d1803d361c97U, 0xbf2bf5633e069e28U, 0xbeb2e525be008862U,
  0xbc3f8d3ebe82e673U, 0xbe0666253b19fcb7U, 0x3e252ede3d4c8e4eU, 0xbe5ac4e8be2b5474U,
  0x3ca784dd3d81bd58U, 0xbe5a04eabe4149b2U, 0x3efed885be6e28a1U, 0xbe1dae743de54922U,
  0xbc938d723e569743U, 0x3e984f913eb061b8U, 0xbe80871e3d9aff56U, 0x3e978d163e9bb7ccU,
  0x3e4531283da70acbU, 0xbe894b75bd23812fU, 0xbecbbb033cd8f80cU, 0xbea4f9fa3f0518b2U,
  0x407589b740326194U, 0xc06904e44055ccefU, 0xc0a66e81c083bf6eU, 0xc03f07adc05b0de8U,
  0xc02f6cadc0a7d793U, 0xbedc3251bf99e643U, 0x3e16605dbd70f34eU, 0xbce919b03d9fa983U,
  0x3ea14fed3c6903f2U, 0xbd81ebf4bea73b21U, 0x3e209a16beacb0bfU, 0x3e2c0521be1e9fe8U,
  0x3dfef6e13fad15d1U, 0xbe3ab1733dfde1e6U, 0x3e757beabd5375d5U, 0xbe56598dbe757fdcU,
  0xbf9f6144bea2d27bU, 0x3dfb76a8bea5fc5cU, 0x3db91a9fbd23186aU, 0x3cd03be63e1e6a84U,
  0x3e8349903d35dc40U, 0xbe0b7d88be9c335cU, 0x3deed81bbea00d9fU, 0x3e2b8e7fbd74e642U,
  0xbcbe4e83bd5b4cc0U, 0x3d57cb193dd904a4U, 0x3eb9665b3de8c226U, 0xbd9c048abe19029bU,
  0x3e11ddc2be3240b6U, 0x3e358497bd1d8345U, 0x3e96d05ec01220e9U, 0x3efd4d973f8664eeU,
};


ai_handle g_network_weights_table[1 + 2] = {
  AI_HANDLE_PTR(AI_MAGIC_MARKER),
  AI_HANDLE_PTR(s_network_weights_array_u64),
  AI_HANDLE_PTR(AI_MAGIC_MARKER),
};

